{
  "version": "1.0",
  "truncation": {
    "direction": "Right",
    "max_length": 64,
    "strategy": "LongestFirst",
    "stride": 0
  },
  "padding": null,
  "added_tokens": [
    {
      "id": 0,
      "content": "<pad>",
      "single_word": false,
      "lstrip": false,
      "rstrip": false,
      "normalized": false,
      "special": true
    },
    {
      "id": 1,
      "content": "<s>",
      "single_word": false,
      "lstrip": false,
      "rstrip": false,
      "normalized": false,
      "special": true
    },
    {
      "id": 2,
      "content": "</s>",
      "single_word": false,
      "lstrip": false,
      "rstrip": false,
      "normalized": false,
      "special": true
    },
    {
      "id": 3,
      "content": "<unk>",
      "single_word": false,
      "lstrip": false,
      "rstrip": false,
      "normalized": false,
      "special": true
    }
  ],
  "normalizer": {
    "type": "NFKC"
  },
  "pre_tokenizer": {
    "type": "ByteLevel",
    "add_prefix_space": false,
    "trim_offsets": true,
    "use_regex": true
  },
  "post_processor": {
    "type": "TemplateProcessing",
    "single": [
      {
        "Sequence": {
          "id": "A",
          "type_id": 0
        }
      }
    ],
    "pair": [
      {
        "Sequence": {
          "id": "A",
          "type_id": 0
        }
      },
      {
        "Sequence": {
          "id": "B",
          "type_id": 1
        }
      }
    ],
    "special_tokens": {}
  },
  "decoder": {
    "type": "ByteLevel",
    "add_prefix_space": true,
    "trim_offsets": true,
    "use_regex": true
  },
  "model": {
    "type": "BPE",
    "dropout": null,
    "unk_token": null,
    "continuing_subword_prefix": null,
    "end_of_word_suffix": null,
    "fuse_unk": false,
    "byte_fallback": false,
    "ignore_merges": false,
    "vocab": {
      "<pad>": 0,
      "<s>": 1,
      "</s>": 2,
      "<unk>": 3,
      "!": 4,
      "\"": 5,
      "$": 6,
      "%": 7,
      "&": 8,
      "'": 9,
      "(": 10,
      ")": 11,
      "+": 12,
      ",": 13,
      "-": 14,
      ".": 15,
      "0": 16,
      "1": 17,
      "2": 18,
      "3": 19,
      "4": 20,
      "5": 21,
      "6": 22,
      "7": 23,
      "8": 24,
      "9": 25,
      ":": 26,
      ";": 27,
      "<": 28,
      "?": 29,
      "@": 30,
      "[": 31,
      "\\": 32,
      "`": 33,
      "¡": 34,
      "¢": 35,
      "£": 36,
      "¤": 37,
      "¥": 38,
      "¦": 39,
      "§": 40,
      "¨": 41,
      "©": 42,
      "ª": 43,
      "«": 44,
      "¬": 45,
      "®": 46,
      "¯": 47,
      "°": 48,
      "²": 49,
      "¶": 50,
      "·": 51,
      "¸": 52,
      "¹": 53,
      "¼": 54,
      "¾": 55,
      "¿": 56,
      "à": 57,
      "â": 58,
      "Ġ": 59,
      "Ģ": 60,
      "ģ": 61,
      "Ĥ": 62,
      "ĥ": 63,
      "ħ": 64,
      "Ĩ": 65,
      "ĩ": 66,
      "Ī": 67,
      "ī": 68,
      "Ĭ": 69,
      "ĭ": 70,
      "Į": 71,
      "į": 72,
      "İ": 73,
      "ı": 74,
      "Ĳ": 75,
      "ĵ": 76,
      "Ķ": 77,
      "ķ": 78,
      "ĸ": 79,
      "Ĺ": 80,
      "ĺ": 81,
      "Ļ": 82,
      "ļ": 83,
      "Ľ": 84,
      "ľ": 85,
      "Ŀ": 86,
      "ŀ": 87,
      "Ł": 88,
      "ł": 89,
      "Ń": 90,
      "à¦": 91,
      "à§": 92,
      "Ġà¦": 93,
      "à¦¾": 94,
      "à§ĩ": 95,
      "à¦°": 96,
      "à¦¿": 97,
      "à¦ķ": 98,
      "à§į": 99,
      "à¦¨": 100,
      "à¦Ł": 101,
      "à¦²": 102,
      "à¦¯": 103,
      "ıà¦ķ": 104,
      "à¦¼": 105,
      "à§ģ": 106,
      "à¦Ľ": 107,
      "Ġà¦ıà¦ķ": 108,
      "Ġà¦ª": 109,
      "à§ĭ": 110,
      "Ġà¦¬": 111,
      "à¦ľ": 112,
      "Ġà¦ķ": 113,
      "à¦¤": 114,
      "à¦¬": 115,
      "à¦¸": 116,
      "Ġà¦¦": 117,
      "à¦¼à§ĩ": 118,
      "Ġà¦®": 119,
      "Ġà¦ıà¦ķà¦Ł": 120,
      "à¦ľà¦¨": 121,
      "à¦¡": 122,
      "Ġà¦¸": 123,
      "à¦®": 124,
      "à¦ıà¦ķ": 125,
      "à¦¦": 126,
      "à¦ļ": 127,
      "à¦ª": 128,
      "Ġà¦Ĩ": 129,
      "à¦¶": 130,
      "à¦¹": 131,
      "Ġà¦²": 132,
      "à§Ģ": 133,
      "Ġà¦Ĩà¦Ľ": 134,
      "à¦Ĥ": 135,
      "à¦·": 136,
      "Ġà¦ªà¦°": 137,
      "à¦ĩ": 138,
      "à¦ıà¦ķà¦Ł": 139,
      "Ġà¦¤": 140,
      "Ġà¦¨": 141,
      "Ġà¦ķà¦°": 142,
      "Ġà¦ıà¦ķà¦ľà¦¨": 143,
      "à¦ģ": 144,
      "Ġà¦¹": 145,
      "¥¤": 146,
      "à¥¤": 147,
      "Ġà¦ı": 148,
      "Ġà¦¶": 149,
      "à¦ĸ": 150,
      "Ġà¦¯": 151,
      "Ġà¦°": 152,
      "Ġà¦ıà¦¬": 153,
      "à¦¼à¦¾": 154,
      "Ġà¦Ľ": 155,
      "à¦¾à¦ģ": 156,
      "à¦Ĺ": 157,
      "Ġà¦ľ": 158,
      "Ġà¦ķà¦°à¦Ľ": 159,
      "à¦¼à¦¿": 160,
      "à¦ıà¦ķà¦ľà¦¨": 161,
      "Ġà¦Ĺ": 162,
      "Ġà¦ļ": 163,
      "à¦¥": 164,
      "Ġà¦®à¦¹": 165,
      "Ġà¦ĸ": 166,
      "Ġà¦Ł": 167,
      "Ġà¦ħ": 168,
      "à¦«": 169,
      "Ġà¦ī": 170,
      "Ġà¦¬à¦¸": 171,
      "à§ĩà¥¤": 172,
      "Ġà¥¤": 173,
      "à¦§": 174,
      "Ġà¦§": 175,
      "Ġà¦Ń": 176,
      "à¦ªà¦°": 177,
      "Ġà¦«": 178,
      "à¦Ļ": 179,
      "à¦£": 180,
      "à¦²à¦Ľ": 181,
      "à¦¯à¦ķ": 182,
      "à¦ł": 183,
      "à¦Ń": 184,
      "Ġà¦§à¦°": 185,
      "Ġà¦īà¦ªà¦°": 186,
      "Ġà¦ĺ": 187,
      "à§Į": 188,
      "Ġà¦¥": 189,
      "à¦ī": 190,
      "Ġà¦ħà¦¨": 191,
      "à¦®à¦¨": 192,
      "à§Ĥ": 193,
      "Ġà¦ĵ": 194,
      "à¦Łà¦Ľ": 195,
      "Ġà¦ľà¦¨": 196,
      "à¦ĩà¦ķ": 197,
      "à¦¿à¦Ĥ": 198,
      "à¦¬à¦²": 199,
      "à¦ĵ": 200,
      "Ġà¦¡": 201,
      "Ġà¦¸à¦®": 202,
      "Ġà¦®à¦§": 203,
      "à§ĥ": 204,
      "à¦ĸà¦¨": 205,
      "Ġà¦¯à¦ĸà¦¨": 206,
      "Ġà¦°à¦Ļ": 207,
      "à¦ĵà¦¯": 208,
      "Ġà¦Ĩà¦°": 209,
      "à¦ŀ": 210,
      "à¦ĩà¦°": 211,
      "à§Ī": 212,
      "à¦ĸà¦Ľ": 213,
      "à¦Ľà¦¨": 214,
      "à¦¦à¦²": 215,
      "Ġà¦Ŀ": 216,
      "Ġà¦¬à¦¯": 217,
      "Ġà¦¸à¦¬": 218,
      "à¦ķà¦Ł": 219,
      "Ġà¦¬à¦¡": 220,
      "Ġà¦Ľà¦¬": 221,
      "à¦ķà¦ľà¦¨": 222,
      "à¦Ŀ": 223,
      "Ġà¦ĩ": 224,
      "Ġà¦¬à¦²": 225,
      "Ġà¦ªà¦¡": 226,
      "Ġà¦¸à¦¹": 227,
      "à¦īà¦¨": 228,
      "à¦¸à¦Ľ": 229,
      "Ġà¦ľà¦²": 230,
      "à¦¨à¦ľà¦¨": 231,
      "à¦°à¦®": 232,
      "à¦Łà¦¬à¦²": 233,
      "Ġà¦¸à¦®à¦¯": 234,
      "Ġà¦°à¦¯": 235,
      "à¦¬à¦ķ": 236,
      "à¦°à¦¸": 237,
      "à¦¬à¦°": 238,
      "à¦¬à¦¯": 239,
      "Ġà¦¹à¦²": 240,
      "à¦°à¦¤": 241,
      "à¦ķà¦Ĺ": 242,
      "Ġà¦ķà¦¥": 243,
      "Ġà¦ķà¦¯": 244,
      "à¦ĺ": 245,
      "à¦ķà¦°": 246,
      "à¦Łà¦ª": 247,
      "à¦ĩà¦¨": 248,
      "Ġà¦¹à¦¯": 249,
      "à¦ħ": 250,
      "à¦²à¦ķ": 251,
      "Ġà¦ħà¦²": 252,
      "à¦¬à¦¨": 253,
      "à¦®à¦²": 254,
      "à¦«à¦°": 255,
      "Ġà¦¦à¦²": 256,
      "à¦²à¦¨": 257,
      "à§ĩà¦ģ": 258,
      "à¦ķà¦¤": 259,
      "Ġà¦¹à¦ļ": 260,
      "à¦ĩà¦ľà¦¨": 261,
      "à¦°à¦ª": 262,
      "Ġà¦¬à¦²à¦Ľ": 263,
      "à¦¸à¦¬": 264,
      "à¦ıà¦ķà¦¦à¦²": 265,
      "à¦¦à¦°": 266,
      "à¦¸à¦°": 267,
      "à¦ªà¦¤": 268,
      "Ġà¦īà¦ł": 269,
      "à¦¹à¦°": 270,
      "à¦¶à¦¨": 271,
      "à¦¥à¦°": 272,
      "Ġà¦¤à¦°": 273,
      "à¦¤à¦°": 274,
      "Ġà¦ıà¦ķà¦¦à¦²": 275,
      "à¦ĩà¦Ł": 276,
      "à¦ı": 277,
      "à¦¯à¦¬": 278,
      "Ġà¦¢": 279,
      "à¦ħà¦¨": 280,
      "à¦Łà¦¬": 281,
      "Ġà¦ļà¦¡": 282,
      "à§ģà¦ģ": 283,
      "à¦Ĩ": 284,
      "à¦²à¦®": 285,
      "à¦°à¦ķ": 286,
      "Ġà¦Ĩà¦ķ": 287,
      "à¦£à¦ķ": 288,
      "Ġà¦ķà¦®à¦²": 289,
      "Ġà¦ļà¦²": 290,
      "Ġà¦¬à¦¨": 291,
      "Ġà¦īà¦ª": 292,
      "Ġà¦ıà¦ķà¦¸": 293,
      "à¦¨à¦Ł": 294,
      "Ġà¦Ĩà¦²": 295,
      "à¦¶à¦®": 296,
      "à¦¨à¦¦": 297,
      "Ġà¦ıà¦¶": 298,
      "à¦ĩà¦¡": 299,
      "Ġà¦¶à¦¹à¦°": 300,
      "à¦¬à¦¤": 301,
      "Ġà¦Ńà¦¬à¦¨": 302,
      "Ġà¦¬à¦¹": 303,
      "Ġà¦¦à¦°": 304,
      "Ġà¦¬à¦°": 305,
      "Ġà¦¨à¦¦": 306,
      "à¦°à¦Ł": 307,
      "à¦Ĺà¦²": 308,
      "à§ģ'": 309,
      "Ġà¦ĩà¦īà¦¨": 310,
      "à¦ªà¦¬à¦¯": 311,
      "à¦ķà¦¯": 312,
      "Ġà¦ĺà¦°": 313,
      "à¦ĩà¦²": 314,
      "à¦Łà¦¸": 315,
      "à¦¸à¦®": 316,
      "à¦¿-": 317,
      "Ġà¦¶à¦°": 318,
      "Ġà¦ħà¦ª": 319,
      "à¦¼à§ĭ": 320,
      "Ġà¦ªà¦¥": 321,
      "Ġà¦ħà¦ªà¦°": 322,
      "Ġà¦ł": 323,
      "à¦°à¦ľà¦¨": 324,
      "à¦¯à¦¬à¦¹": 325,
      "à¦¿à¦ģ": 326,
      "à¦°à¦Ľ": 327,
      "Ġà¦īà¦łà¦Ľ": 328,
      "à¦Łà¦Ń": 329,
      "Ġà¦ľà¦¡": 330,
      "Ġà§": 331,
      "Ġà¦ıà¦°": 332,
      "Ġà¦®à¦¨": 333,
      "à¦¸à¦¬à¦²": 334,
      "à¦¨à¦Ĺ": 335,
      "Ġà¦Łà¦ª": 336,
      "Ġà¦¦à¦®": 337,
      "Ġà¦ĵà¦¯": 338,
      "Ġà¦¬à¦¹à¦¨": 339,
      "Ġà¦Ĺà¦°": 340,
      "à¦īà¦Ł": 341,
      "à¦¹à¦²": 342,
      "Ġà¦®à¦ŀ": 343,
      "à¦°à¦£": 344,
      "à¦ªà¦¡": 345,
      "Ġà¦Ĩà¦¸à¦Ľ": 346,
      "Ġà¦¬à¦ĩ": 347,
      "à¦ªà¦¨": 348,
      "Ġà¦²à¦®": 349,
      "à¦°à¦¬": 350,
      "Ġà¦¸à¦Ļ": 351,
      "Ġà¦ıà¦²": 352,
      "à¦·à¦ķ": 353,
      "Ġà¦ªà¦¤": 354,
      "à¦¬à¦¸": 355,
      "à¦¤à¦²": 356,
      "Ġà¦ķà¦°à¦¤": 357,
      "Ġà¦ļà¦¶à¦®": 358,
      "à¦°à¦²": 359,
      "à¦¯à¦¸": 360,
      "Ġà¦®à¦¯": 361,
      "Ġà¦¬à¦°à¦«": 362,
      "à¦Ĺà¦ľ": 363,
      "à¦ĺà¦°": 364,
      "à¦ķà¦¦": 365,
      "à¦Ľà¦ª": 366,
      "à¦ļà¦Ľ": 367,
      "à¦¨à¦Ľ": 368,
      "Ġà¦ķà¦®": 369,
      "Ġà¦īà¦¡": 370,
      "à¦°à¦«à¦°": 371,
      "à¦Łà¦°à¦¸": 372,
      "Ġà¦Ĺà¦²": 373,
      "Ġà¦ªà¦Łà¦Ń": 374,
      "Ġà¦Ńà¦¦": 375,
      "Ġà¦¸à¦°": 376,
      "Ġà¦ĩà¦Ł": 377,
      "Ġà¦Ńà¦°": 378,
      "à¦¢": 379,
      "à¦²à¦¤": 380,
      "à¦¤à¦¬à¦¯": 381,
      "à¦Ŀà¦ĸ": 382,
      "à¦°à¦¦": 383,
      "Ġà¦īà¦ªà¦Ń": 384,
      "à¦ķà¦®à¦²": 385,
      "à¦ĩà¦¸": 386,
      "à¦Łà¦ķ": 387,
      "Ġà¦ķà¦²": 388,
      "à¦Ĺà¦¨": 389,
      "à¦ķà¦²": 390,
      "à¦ķà¦Ľ": 391,
      "à¦ĩà¦Ľ": 392,
      "Ġà¦§à¦°à¦Ľ": 393,
      "à¦¹à¦£": 394,
      "Ġà¦¯à¦¨": 395,
      "à¦²à¦«": 396,
      "Ġà¦°à¦ķ": 397,
      "âĢ": 398,
      "à¦·à¦°": 399,
      "à¦ķà¦ª": 400,
      "Ġà¦ħà¦¸": 401,
      "Ġà¦Ĩà¦Ĺ": 402,
      "à¦ªà¦ķ": 403,
      "à¦īà¦ľ": 404,
      "à¦¾à¥¤": 405,
      "à¦·à¦£": 406,
      "Ġà¦¦à¦°à¦ľ": 407,
      "à§İ": 408,
      "Ġà¦Ĩà¦®": 409,
      "à§ĭà¦ģ": 410,
      "à¦Łà¦°": 411,
      "Ġà¦īà¦²": 412,
      "Ġà¦ħà¦¬à¦¸": 413,
      "à¦ľà¦Ľ": 414,
      "à¦®à¦¡": 415,
      "à¦¯à¦®": 416,
      "à¦¥à¦¨": 417,
      "à¦ľà¦²": 418,
      "à¦®à¦¹": 419,
      "à¦¼à§Ģ": 420,
      "à¦ĩà¦®": 421,
      "à¦¸à¦²": 422,
      "Ġà¦¦à¦¡": 423,
      "Ġà¦ķà¦¨": 424,
      "Ġà¦ľà¦Ļ": 425,
      "à¦¶à¦²": 426,
      "à¦ıà¦ĩ": 427,
      "à¦«à¦ª": 428,
      "Ġà¦®à¦¤": 429,
      "à¦¾à¦Ĥ": 430,
      "à¦ķà¦ķ": 431,
      "Ġà¦ĵà¦ªà¦°": 432,
      "à¦°à¦Ļ": 433,
      "Ġà¦īà¦ľ": 434,
      "à¦ķà¦¡": 435,
      "à¦ļà¦ľà¦¨": 436,
      "à¦°à¦®à¦¹": 437,
      "à¦¨à¦¨": 438,
      "à¦ļà¦¶à¦®": 439,
      "âĢĮ": 440,
      "âĢĮà§į": 441,
      "à¦°à¦¦à¦°": 442,
      "à¦ĩà¦ª": 443,
      "à¦°à¦Ĺ": 444,
      "à¦¬à¦¦": 445,
      "Ġà¦ħà¦«": 446,
      "Ġà¦ļà¦²à¦Ľ": 447,
      "Ġà¦¬à¦ķ": 448,
      "à¦¼à¥¤": 449,
      "à¦ªà¦¸": 450,
      "à¦¶à¦¯": 451,
      "à¦¶à¦¹à¦°": 452,
      "Ġà¦ħà¦Ń": 453,
      "à¦ķà¦¨": 454,
      "à¦¤à¦¬": 455,
      "à¦Ĺà¦°": 456,
      "à¦°à¦®à¦¯": 457,
      "Ġà¦ľà¦®": 458,
      "à¦¦à¦¨": 459,
      "Ġà§¨": 460,
      "à¦¯à¦°": 461,
      "à¦®à¦¯": 462,
      "à¦ĩà¦Ń": 463,
      "à¦®à¦Ľ": 464,
      "Ġà¦²à¦¨": 465,
      "à¦īà¦¬à¦¯": 466,
      "à¦¼à§ģ": 467,
      "Ġà¦ıà¦Ł": 468,
      "à¦ĸà¦¤": 469,
      "Ġà¦«à¦²": 470,
      "à¦§à¦ķ": 471,
      "à¦¯à¦Ł": 472,
      "à¦°à¦¨": 473,
      "Ġà¦Ĩà¦«": 474,
      "Ġà¦Ĩà¦¸": 475,
      "Ġà¦īà¦¦": 476,
      "à¦°à¦°": 477,
      "à¦¶à¦ķà¦¦": 478,
      "Ġà¦¸à¦¨": 479,
      "à¦®à¦°": 480,
      "à¦¯à¦¨": 481,
      "à¦Ĩà¦ķ": 482,
      "à¦¦à¦¸": 483,
      "à¦®à¦¬": 484,
      "à¦¾-": 485,
      "Ġà¦¹à¦ķ": 486,
      "Ġà¦Ńà¦²": 487,
      "Ġà¦ħà¦°": 488,
      "Ġà¦Ĩà¦ĩà¦¸": 489,
      "à¦®à¦ª": 490,
      "Ġà¦Ŀà¦°": 491,
      "à¦Łà¦¶": 492,
      "Ġà¦Ĩà¦ª": 493,
      "Ġà¦¨à¦®": 494,
      "à¦¤à¦ķ": 495,
      "à§ĭà¦Ĥ": 496,
      "à¦®à¦ŀ": 497,
      "à§ĩ,": 498,
      "à¦¡à¦¸": 499,
      "Ġà¦¸à¦°à¦ŀ": 500,
      "Ġà¦Ĩà¦¬": 501,
      "Ġà¦Ĩà¦ļ": 502,
      "Ġà¦¶à¦ª": 503,
      "Ġà¦¸à¦¦à¦¸": 504,
      "Ġà¦«à¦Ł": 505,
      "à¦°à¦¯": 506,
      "à¦¶à¦ķ": 507,
      "à¦¨à¦ķ": 508,
      "à¦Ĩà¦ª": 509,
      "à¦¸à¦ª": 510,
      "Ġà¦²à¦¡": 511,
      "à¦ķà¦¶": 512,
      "Ġà¦ħà¦¤": 513,
      "à¦°à¦¶": 514,
      "à¦·à¦Ł": 515,
      "à¦Ńà¦¸": 516,
      "à¦ħà¦²": 517,
      "à¦ªà¦¥": 518,
      "à¦°à¦ļ": 519,
      "Ġà¦Ĩà¦Ļ": 520,
      "à¦ļà¦ķ": 521,
      "à¦ĩà¦¯": 522,
      "Ġà¦¶à¦ķ": 523,
      "Ġà¦®à¦ľ": 524,
      "Ġà¦ªà¦£": 525,
      "Ġà¦ĩà¦Ń": 526,
      "Ġà¦Ĩà¦īà¦Ł": 527,
      "à¦¨à¦¯": 528,
      "à¦¯à¦ľà¦¨": 529,
      "à¦¨à¦¬": 530,
      "Ġà¦¸à¦¬à¦ľ": 531,
      "Ġà¦ĩà¦¶": 532,
      "à¦¯à¦¬à¦¸": 533,
      "à¦®à¦ļ": 534,
      "à¦·à¦¦": 535,
      "Ġà¦īà¦ļ": 536,
      "à¦°à¦¹": 537,
      "Ġà¦ķà¦¨à¦¸": 538,
      "Ġà¦Ĩà¦¨": 539,
      "Ġà¦īà¦¤": 540,
      "Ġà¦¹à¦ĵà¦¯": 541,
      "à¦«à¦Ł": 542,
      "Ġà¦ħà¦Ĺ": 543,
      "Ġà¦®à¦°": 544,
      "à¦Łà¦¤": 545,
      "Ġà¦Ĩà¦ĺ": 546,
      "Ġà¦ıà¦®à¦¨": 547,
      "à¦Ľà¦¬": 548,
      "Ġà¦ĸà¦¡": 549,
      "à¦ıà¦Ł": 550,
      "à¦²à¦ļ": 551,
      "à¦ªà¦ķà¦¥à¦¨": 552,
      "à¦¯à¦¬à¦¯": 553,
      "Ġà¦Ĩà¦Łà¦ķ": 554,
      "à¦¦à¦¬": 555,
      "à¦²à¦Ł": 556,
      "à¦¸à¦¨": 557,
      "à¦ĵà¦¤": 558,
      "à¦ĩà¦«": 559,
      "Ġà¦¡à¦ķ": 560,
      "Ġà¦ıà¦ķà¦ĩ": 561,
      "à¦¡à¦²": 562,
      "Ġà¦Ĩà¦¯": 563,
      "à¦ªà¦Łà¦ª": 564,
      "à¦¬à¦¡": 565,
      "à¦°à¦«": 566,
      "Ġà¦ķà¦«": 567,
      "Ġà¦ıà¦ª": 568,
      "Ġ2": 569,
      "à¦ıà¦¶": 570,
      "Ġà¦Ĩà¦¡": 571,
      "Ġà¦·": 572,
      "à¦¨à¦°": 573,
      "à¦¯à¦ª": 574,
      "Ġà¦Ĩà¦ĩà¦¸à¦ķ": 575,
      "Ġà¦ıà¦ķà¦¸à¦Ļ": 576,
      "à¦®à¦¤": 577,
      "Ġà¦ľà¦Ĺ": 578,
      "à¦¯à¦¦": 579,
      "Ġà¦ıà¦¸": 580,
      "à¦¸à¦ªà¦¤": 581,
      "Ġà¦Ľà¦¯": 582,
      "à¦Łà¦«à¦°": 583,
      "Ġà¦Ĩà¦¨à¦¨": 584,
      "à¦¤à¦¶": 585,
      "à¦¯à¦¯à¦¨": 586,
      "à¦ªà¦Łà¦Ń": 587,
      "à¦¹à¦¨": 588,
      "à¦¸à¦ľ": 589,
      "à¦¡à¦¬": 590,
      "à¦¥à¦²": 591,
      "à¦«à¦¬": 592,
      "à¦¤à¦®": 593,
      "Ġà¦ĺà¦¡": 594,
      "à¦Ĺà¦²à¦¸": 595,
      "Ġà¦Ĩà¦¶": 596,
      "à§¨": 597,
      "à¦°à¦ľ": 598,
      "à¦¶à¦ķà¦°": 599,
      "à¦ĩà¦ľ": 600,
      "Ġà¦Ĩà¦°à¦ĵ": 601,
      "à¦Łà¦²": 602,
      "à¦²à¦Ĺ": 603,
      "Ġà¦Ĩà¦¬à¦°": 604,
      "à¦ļà¦¨": 605,
      "à¦ļà¦²": 606,
      "à§Įà¦ģ": 607,
      "Ġà¦ħà¦ªà¦°à¦ķ": 608,
      "Ġà¦ļà¦ķ": 609,
      "à¦¸à¦¤": 610,
      "Ġà¦ıà¦ĩ": 611,
      "à¦ªà¦²": 612,
      "à¦¼à§ĩà¥¤": 613,
      "à¦ĺà¦²": 614,
      "Ġà¦§à¦°à¦¨": 615,
      "Ġà¦§à¦°à¦¤": 616,
      "Ġà¦ĩà¦¨": 617,
      "à¦¦à¦®": 618,
      "Ġà¦īà¦ªà¦¸": 619,
      "Ġà¦ªà¦¥à¦ļ": 620,
      "Ĳà¦¤": 621,
      "Ġà¦¶à¦Ł": 622,
      "Ġà§©": 623,
      "à¦¦à¦ķ": 624,
      "Ġà¦ĸà¦¨à¦¨": 625,
      "Ġà¦Ĩà¦īà¦Łà¦¡": 626,
      "Ġà¦²à¦Ł": 627,
      "Ġà¦§à¦°à¦£": 628,
      "à¦Łà¦¨": 629,
      "à§İà¦ķ": 630,
      "Ġà¦®à¦¦": 631,
      "à¦¸à¦Ł": 632,
      "Ġà¦¶à¦¹": 633,
      "Ġà¦¸à¦ķ": 634,
      "à¦ļà¦Ł": 635,
      "Ġà§§": 636,
      "Ġà¦ĩà¦¯": 637,
      "à¦²à¦¬": 638,
      "à¦¦à¦Ľ": 639,
      "à¦ĩà¦ļ": 640,
      "à¦¿à¥¤": 641,
      "Ġà¦Ĺà¦Ĺà¦²à¦¸": 642,
      "Ġà¦ĵà¦Ń": 643,
      "à¦°à¦Ń": 644,
      "à¦ķà¦¸": 645,
      "à¦¡à¦«": 646,
      "Ġà¦ıà¦Ĺ": 647,
      "à¦īà¦¯": 648,
      "Ġà¦¶à¦Ļ": 649,
      "Ġà¦īà¦¦à¦¯": 650,
      "à¦§à¦¨": 651,
      "Ġà¦ªà¦°à¦¨": 652,
      "à¦Ńà¦¯": 653,
      "Ġà¦ĩà¦²": 654,
      "à¦«à¦²": 655,
      "à¦īà¦¬": 656,
      "Ġà¦¸à¦ľ": 657,
      "Ġà¦¤à¦°à¦Ļ": 658,
      "à¦ıà¦ĸ": 659,
      "à¦Łà¦®": 660,
      "à¦Ĩà¦®": 661,
      "à¦ķà¦Ĩà¦ª": 662,
      "à¦¤à¦¨": 663,
      "Ġà¦ħà¦¬": 664,
      "à¦®à¦ķ": 665,
      "Ġ3": 666,
      "à¦Ĺà¦¤": 667,
      "Ġà¦¨à¦¤": 668,
      "Ġà¦Ľà¦¡": 669,
      "Ġà¦īà¦Ńà¦¯": 670,
      "Ġà¦Ĺà¦°à¦®": 671,
      "Ġà¦¹à¦°": 672,
      "Ġà¦ķà¦ķ": 673,
      "Ġà¦¨à¦¬": 674,
      "à¦°à¦®à¦£": 675,
      "à¦Ĺà¦¬": 676,
      "à¦ĩà¦īà¦¨": 677,
      "Ġà¦¨à¦°": 678,
      "Ġà¦Ĺà¦Ń": 679,
      "à¦²à¦²": 680,
      "Ġà¦ķà¦¬": 681,
      "Ġà¦ħà¦¦": 682,
      "Ġà¦ħà¦Ĺà¦Ń": 683,
      "à¦°à¦ĸ": 684,
      "Ġà¦īà§İ": 685,
      "Ġà¦Ńà¦Ļ": 686,
      "Ġà¦¬à¦ĩà¦¯": 687,
      "Ġà¦ħà¦Ļ": 688,
      "à¦°à¦¹à¦£": 689,
      "à¦¹à¦ķ": 690,
      "à¦¬à¦§": 691,
      "Ġà¦¤à¦²": 692,
      "à¦Ńà¦¬à¦¤": 693,
      "Ġà¦¸à¦¤": 694,
      "Ġà¦²à¦ķ": 695,
      "Ġà¦²à¦Ĺ": 696,
      "Ġà¦ĸà¦¬à¦°": 697,
      "Ġà¦ıà¦ķà¦¤": 698,
      "Ġà¦īà¦ªà¦¹": 699,
      "Ġà¦°à¦ķà¦®": 700,
      "à¦¸à¦ķ": 701,
      "Ġà¦¬à¦²à¦Ł": 702,
      "à¦ķà¦¬": 703,
      "à¦²à¦ª": 704,
      "à¦¬à¦²à¦Ľ": 705,
      "à¦¶à¦Ĺ": 706,
      "à¦¸à¦°à¦£": 707,
      "Ġà¦Ĩà¦ĩà¦Ł": 708,
      "Ġà¦¬à¦¹à¦¨à¦ķ": 709,
      "à¦¨à¦¤": 710,
      "à¦Ľà¦¯": 711,
      "à¦²à¦ĵà¦¯": 712,
      "Ġà¦ªà¦¶": 713,
      "à¦¦à¦ªà¦¤": 714,
      "Ġà¦ıà¦ķà¦ľà¦¨à¦ķ": 715,
      "à¦Ĺà¦¡": 716,
      "à¦²à¦¯": 717,
      "à¦²à¦Ń": 718,
      "à¦ªà¦·": 719,
      "Ġà¦ľà¦¨à¦¤": 720,
      "Ġà¦ĵà¦ª": 721,
      "à¦°à¦ķà¦²": 722,
      "à§Ģ-": 723,
      "à¦ľà¦®": 724,
      "Ġà¦ľà¦²à¦ª": 725,
      "à¦°à¦«à¦°à¦®": 726,
      "à§©": 727,
      "à¦¬à¦¹": 728,
      "à¦ķà¦Ń": 729,
      "à¦®à¦¦": 730,
      "à¦¥à¦®": 731,
      "Ġà¦ķà¦²à¦¸": 732,
      "à¦¬à¦°à¦«": 733,
      "Ġà¦«à¦¸à¦²": 734,
      "à¦ľà¦°": 735,
      "Ġà¦®à¦²": 736,
      "à¦Łà¦°à¦¬": 737,
      "à¦°à¦¸à¦ĵà¦¯": 738,
      "Ġà¦ļà¦°": 739,
      "Ġ1": 740,
      "Ġà¦ķà¦ļ": 741,
      "Ġà¦¹à¦¤": 742,
      "à¦ĩà¦²à¦ļ": 743,
      "Ġà¦ıà¦ķà¦Ĺ": 744,
      "Ġà¦īà§İà¦¸à¦¬": 745,
      "à¦¡à¦Ĺ": 746,
      "Ġà¦ĺà¦¨": 747,
      "Ġà¦Ĩà¦ķà¦°": 748,
      "Ġà¦Ĳà¦¤": 749,
      "Ġà¦ªà¦¨": 750,
      "à¦®à¦Ĺ": 751,
      "Ġà¦Ĺà¦¤": 752,
      "à§ª": 753,
      "à¦¤à¦¤": 754,
      "Ġà¦Łà¦¬": 755,
      "à¦ķà¦ĵà¦¯": 756,
      "à¦¶à¦°": 757,
      "Ġà¦¬à¦²à¦ķ": 758,
      "Ġà¦Ńà¦ķ": 759,
      "à¦¤à¦ľà¦¨": 760,
      "à¦¡à¦¯": 761,
      "Ġà¦¸à¦¸": 762,
      "Ġà¦¸à¦®à¦¸": 763,
      "Ġà¦¬à¦ľ": 764,
      "à¦ļà¦¡": 765,
      "Ġà§ª": 766,
      "à¦®à¦¸": 767,
      "Ġà¦²à¦ŀ": 768,
      "Ġà¦¤à¦ĸà¦¨": 769,
      "Ġà¦ļà¦¤": 770,
      "à¦ľà¦¸": 771,
      "à¦īà¦ķ": 772,
      "Ġà¦ħà¦§": 773,
      "à¦īà¦¸": 774,
      "à¦Ŀà¦°": 775,
      "à§ĩ;": 776,
      "Ġà¦®à¦¡": 777,
      "à¦Ľà¦°": 778,
      "Ġà¦ªà¦°à¦Ľ": 779,
      "à¦Ńà¦ķ": 780,
      "à¦ıà¦°": 781,
      "à¦¤à¦Ń": 782,
      "à¦¸à¦¯": 783,
      "à¦ļà¦°": 784,
      "à¦łà¦¨": 785,
      "à¦¡à¦ĵà¦¯": 786,
      "Ġà¦īà¦ĩà¦¨": 787,
      "à¦ķà¦ľà¦¨à¦ķ": 788,
      "à¦°à¦¥à¦®": 789,
      "Ġà¦ĵà¦ľà¦¨": 790,
      "à¦¨à¦ľ": 791,
      "à¦²à¦¸": 792,
      "à¦Ńà¦²": 793,
      "Ġà¦Ĩà¦¸à¦¨": 794,
      "à¦°à¦ĵ": 795,
      "à¦²à¦ªà¦¥": 796,
      "à¦ľà¦Ĩà¦ª": 797,
      "à§§": 798,
      "à¦ĸà¦²": 799,
      "à¦īà¦°": 800,
      "à¦Ĺà¦ľà¦ªà¦¤": 801,
      "Ġà¦Ĺà¦²à¦«": 802,
      "Ġà¦ĩà¦¨à¦¡": 803,
      "à¦¤à¦Ł": 804,
      "à¦®à¦§": 805,
      "à¦ĸà¦¡": 806,
      "à¦Ĩà¦īà¦Ł": 807,
      "Ġà¦®à¦¸à¦ľ": 808,
      "à¦ħà¦«": 809,
      "à¦¨à¦¸": 810,
      "à§ĭ-": 811,
      "Ġà¦ķà¦ª": 812,
      "à¦¬à¦ĵà¦¯": 813,
      "Ġà¦¨à¦ķà¦¶": 814,
      "Ġ5": 815,
      "Ġà¦ľà¦°": 816,
      "Ġà¦Ĩà¦¬à¦Ľ": 817,
      "à¦¨à¦ļ": 818,
      "à¦¯à¦¶": 819,
      "à¦ľà¦Ļ": 820,
      "Ġà¦ķà¦ł": 821,
      "à¦ĩà¦¬": 822,
      "à¦Ńà¦¦": 823,
      "à¦°à¦§": 824,
      "à¦ķà¦¶à¦¨": 825,
      "à¦¤à¦°à¦£": 826,
      "à¦Łà¦Ł": 827,
      "à¦Ľà¦²": 828,
      "Ġà¦°à¦¡": 829,
      "Ġ(": 830,
      "Ġ4": 831,
      "à¦¯à¦Łà¦ķ": 832,
      "Ġà¦ķà¦²à¦®": 833,
      "à¦ªà¦ļ": 834,
      "Ġà¦¹à¦Ł": 835,
      "Ġ-": 836,
      "à¦¡à¦®": 837,
      "à¦¯à¦¯": 838,
      "à¦Ĺà¦Ń": 839,
      "à¦Ĳà¦¤": 840,
      "à¦ªà¦Ľ": 841,
      "Ġà¦Ĩà¦§": 842,
      "Ġà¦ĵà¦¡": 843,
      "à¦¹à¦¹": 844,
      "Ġà¦ľà¦ķ": 845,
      "Ġà¦¸à¦«": 846,
      "Ġà¦¨à¦Ĺ": 847,
      "à¦ķà¦¤à¦Ĺ": 848,
      "à¦ķà¦²à¦ķà¦°": 849,
      "à¦ĥ": 850,
      "Ġà¦ªà¦¦": 851,
      "à¦·à¦¤": 852,
      "à¦¼à¦¿à¦Ĥ": 853,
      "Ġà¦Ĺà¦¡": 854,
      "à¦¾,": 855,
      "à¦°à¦ħà¦²": 856,
      "à¦ļà¦¤": 857,
      "Ġà¦ĵà¦ł": 858,
      "à¦¤à¦ľ": 859,
      "Ġà¦®à¦Ĺ": 860,
      "Ġà¦īà¦Ł": 861,
      "Ġà¦ıà¦¸à¦ķ": 862,
      "à¦ªà¦ķà¦°": 863,
      "à¦¶à¦¹": 864,
      "à¦Ĺà¦¯": 865,
      "Ġà¦¹à¦²à¦ĵà¦¯": 866,
      "à¦Ĩà¦«": 867,
      "à¦¤à¦¦": 868,
      "à¦®à¦¶": 869,
      "à¦¨à¦Ń": 870,
      "Ġà¦¦à¦ķ": 871,
      "à¦¡à¦Ł": 872,
      "à¦¡à¦ī": 873,
      "Ġà¦«à¦°": 874,
      "à¦ĩà¦¨à¦¬": 875,
      "Ġà¦¤à¦°à¦²": 876,
      "à¦ıà¦®": 877,
      "Ġà¦Ĩà¦¬à¦¹": 878,
      "Ġà¦ļà¦ķà¦ļà¦ķ": 879,
      "Ġà¦ıà¦ķà¦ľ": 880,
      "à¦Ĩà¦¨": 881,
      "à¦¡à¦īà¦ĩà¦ļ": 882,
      "Ġà¦ıà¦ķà¦ª": 883,
      "Ġà¦ªà¦¶à¦®": 884,
      "Ġà¦ĸà¦°à¦Ĺ": 885,
      "à¦īà¦ļ": 886,
      "à¦¨à¦¬à¦¨": 887,
      "Ġà¦¨à¦¬à¦¬à¦§": 888,
      "à¦¦à¦¯": 889,
      "Ġà¦§à¦¨": 890,
      "à§ĭà¥¤": 891,
      "à¦®à¦ķà¦°": 892,
      "Ġà¦ĩà¦ŀ": 893,
      "Ġà¦¨à¦¬à¦ľ": 894,
      "à¦Ĺà¦ª": 895,
      "à¦«à¦ĵà¦¯": 896,
      "à¦¬à¦²à¦¨": 897,
      "à¦¬à¦¶": 898,
      "Ġà¦Ĩà¦¦": 899,
      "Ġà¦Ĺà¦®": 900,
      "Ġà¦ıà¦¯": 901,
      "Ġà¦ħà¦ķ": 902,
      "à¦¨à¦¡": 903,
      "à¦®à¦Ł": 904,
      "à¦¦à¦¦": 905,
      "Ġà¦Ĩà¦Ł": 906,
      "âĢĭ": 907,
      "Ġà¦ªà¦²": 908,
      "à¦Ĩà¦²": 909,
      "Ġà¦īà¦ªà¦ķ": 910,
      "à¦¸à¦¸": 911,
      "Ġà¦ķà¦¤": 912,
      "à¦¬à¦¹à¦¨": 913,
      "à¦²à¦Ļ": 914,
      "à¦¬à¦ļ": 915,
      "à¦ıà¦ķà¦Ĺ": 916,
      "Ġà¦¨à¦¯": 917,
      "Ġà¦¶à¦¬": 918,
      "Ġà¦Ľà¦¦": 919,
      "Ġà¦¹à¦¬": 920,
      "Ġà¦Ńà¦¯": 921,
      "à¦ľà¦ķ": 922,
      "Ġà¦¦à¦²à¦ķ": 923,
      "à¦§à¦Ń": 924,
      "Ġà¦¹à¦Łà¦¡à¦Ĺ": 925,
      "à¦ķà¦®": 926,
      "à¦ľà¦¯": 927,
      "à¦¬à¦Ľ": 928,
      "à¦ķà¦°à¦£": 929,
      "à§İà¦¸": 930,
      "à¦°à¦¹à¦£à¦ķ": 931,
      "Ġà¦¸à¦«à¦Łà¦¬à¦²": 932,
      "à¦Ľà¦¦": 933,
      "Ġà¦ıà¦ķà¦ķ": 934,
      "à¦¼à¦¿à¥¤": 935,
      "Ġà¦Ĺà¦¨": 936,
      "à§ģà¥¤": 937,
      "Ġà¦ªà¦ķ": 938,
      "à¦¸à¦¹": 939,
      "à¦¸à¦«": 940,
      "Ġà¦Ĩà¦ªà¦¨": 941,
      "Ġà¦°à¦¸": 942,
      "à¦ĩà¦ªà¦¡": 943,
      "Ġà¦īà¦·": 944,
      "à¦¨à¦¹": 945,
      "à¦£à¦Ń": 946,
      "à¦¬à¦ķà¦°": 947,
      "Ġà¦ħà¦¬à¦¤à¦°à¦£": 948,
      "Ġ,": 949,
      "à¦¬à¦ķà¦Ł": 950,
      "Ġà¦®à¦ĩ": 951,
      "à¦·à¦¯": 952,
      "Ġà¦¶à¦¸": 953,
      "à¦Ńà¦¬à¦¨": 954,
      "Ġà¦ħà¦²à¦Ļ": 955,
      "à¦ıà¦¸": 956,
      "à¦Ĩà¦°": 957,
      "à§ĩ-": 958,
      "à¦ªà¦ª": 959,
      "à¦ħà¦¸": 960,
      "à¦¤à¦ª": 961,
      "à¦®à¦ľ": 962,
      "Ġà¦ıà¦¡": 963,
      "Ġà¦Łà¦®": 964,
      "Ġ'": 965,
      "Ġà¦Ĩà¦ĩà¦²": 966,
      "Ġà¦ħà¦Ł": 967,
      "Ġà¦ľà¦¨à¦¸à¦®": 968,
      "Ġà¦¦à¦®à¦ķà¦²à¦ķà¦°": 969,
      "à§«": 970,
      "à¦¹à¦¤": 971,
      "à¦īà¦²": 972,
      "Ġà¦¡à¦Ł": 973,
      "à¦°à¦ķà¦®": 974,
      "à¦°à¦ķà¦°": 975,
      "à¦¿,": 976,
      "à¦²à¦°à¦ķ": 977,
      "à¦ıà¦ķà¦¸": 978,
      "à¦¶à¦Ł": 979,
      "à¦²à¦¡": 980,
      "à¦·à¦Ĺ": 981,
      "Ġà¦Ĺà¦łà¦¨": 982,
      "à¦¸à¦¬à¦ľ": 983,
      "à¦¯à¦Łà¦ķà¦°": 984,
      "Ġà¦ķà¦Ń": 985,
      "Ġà¦Ĺà¦¯": 986,
      "à¦ªà¦Ł": 987,
      "Ġà¦¤à¦°à¦®": 988,
      "Ġà¦¸à¦¹à¦ķ": 989,
      "Ġà¦īà¦łà¦¤": 990,
      "à¦Łà¦ĵà¦¯": 991,
      "à¦¶à¦¦": 992,
      "Ġà¦ļà¦²à¦¨": 993,
      "Ġà¦¸à¦®à¦°": 994,
      "Ġà¦¬à¦Ľà¦°": 995,
      "à¦¡à¦²à¦ķ": 996,
      "Ġà¦Ĩà¦¸à¦¬": 997,
      "Ġà¦¹à¦¨": 998,
      "à¦ĸà¦£": 999,
      "Ġà¦ĩà¦¸": 1000,
      "à¦¬à¦ķà¦ķ": 1001,
      "à§Ģà¥¤": 1002,
      "Ġà¦ľà¦²à¦ĸ": 1003,
      "à¦ªà¦£": 1004,
      "à¦«à¦¸à¦²": 1005,
      "Ġà§«": 1006,
      "Ġà¦ķà¦¸": 1007,
      "Ġà¦¸à¦¤à¦°": 1008,
      "à¦¹à¦ķà¦¦": 1009,
      "Ġà¦īà¦¨": 1010,
      "à¦ĵà¦Ń": 1011,
      "à¦ķà¦¦à¦²": 1012,
      "à¦ķà¦Ĩà¦īà¦Ł": 1013,
      "Ġà¦ıà¦ķà¦°à¦ķà¦®": 1014,
      "à¦¬à¦¬": 1015,
      "Ġà¦ļà¦ķà¦²": 1016,
      "à¦īà¦¡": 1017,
      "à¦ªà¦¥à¦ļ": 1018,
      "à¦¶à¦«": 1019,
      "à¦·à¦Ľ": 1020,
      "à¦īà¦ªà¦°": 1021,
      "à¦īà¦ŀ": 1022,
      "à¦¬à¦ķà¦¦": 1023,
      "à¦¦à¦°à¦ľ": 1024,
      "Ġà¦ķà¦¨à¦«": 1025,
      "Ġà¦ķà¦·": 1026,
      "Ġà¦¦à¦ĸà¦²": 1027,
      "à¦¡à¦¨": 1028,
      "à¦ªà¦¶à¦¨": 1029,
      "à¦ĩà¦¤": 1030,
      "à¦Ĺà¦®": 1031,
      "Ġà¦Łà¦°": 1032,
      "Ġà¦Łà¦¯": 1033,
      "à¦īà¦¤": 1034,
      "Ġ6": 1035,
      "Ġà¦ªà¦¯": 1036,
      "à¦ľà¦¹": 1037,
      "à¦¬à¦ªà¦¤": 1038,
      "à¦ľà¦¨à¦ķ": 1039,
      "Ġà¦¨à¦ĸ": 1040,
      "Ġà¦¶à¦°à¦¤": 1041,
      "à¦Ĩà¦Ĺ": 1042,
      "à¦¡à¦¡": 1043,
      "à¦ıà¦ķà¦ĩ": 1044,
      "Ġà¦ªà¦°à¦ļ": 1045,
      "Ġà¦¨à¦²": 1046,
      "Ġà¦¨à¦¡": 1047,
      "à¦ĩà¦ķà¦Ł": 1048,
      "Ġà¦ĩà¦Ļ": 1049,
      "Ġà¦¨à¦ķà¦²": 1050,
      "Ġà¦ıà¦¨": 1051,
      "Ġà¦ħà¦ŀ": 1052,
      "à¦łà¦Ń": 1053,
      "Ġà¦¸à¦¹à¦ķà¦°": 1054,
      "à¦ĩà¦¨à¦¸": 1055,
      "à¦¸à¦®à¦¸": 1056,
      "à¦Ĺà¦Ńà¦Ļ": 1057,
      "Ġà¦ķà¦¤à¦Ĺ": 1058,
      "à¦®à¦®à¦¨": 1059,
      "Ġà¦ªà¦°à¦¬à¦°": 1060,
      "Ġà¦ļà¦²à¦®": 1061,
      "à¦«à¦ķ": 1062,
      "Ġà¦Łà¦ªà¦¸": 1063,
      "à§İà¦ª": 1064,
      "Ġà¦¸à¦®à¦¨": 1065,
      "à¦®à¦¸à¦ľ": 1066,
      "à¦¶à¦ª": 1067,
      "à¦ĩà¦ĵà¦¯": 1068,
      "à§İà¦ľ": 1069,
      "Ġà¦ļà¦ķà¦¬": 1070,
      "Ġà¦ħà¦¡": 1071,
      "01": 1072,
      "Ġà¦ªà¦¦à¦ķ": 1073,
      "à¦¹à¦¸": 1074,
      "à¦«à¦²à¦¨": 1075,
      "à¦ıà¦²": 1076,
      "à¦¤à¦¶à¦¬": 1077,
      "Ġà¦®à¦¸": 1078,
      "à¦ªà¦Ŀ": 1079,
      "Ġà¦°à¦¶": 1080,
      "Ġà¦Ĺà¦¬": 1081,
      "à¦ĵà¦²": 1082,
      "Ġà¦īà¦ªà¦¬": 1083,
      "à¦ķà¦ļ": 1084,
      "à¦¡à¦°": 1085,
      "Ġà¦¤à¦ķ": 1086,
      "à¦£à¦°": 1087,
      "à§¬": 1088,
      "à¦ªà¦¦": 1089,
      "Ġà¦¬à¦²à¦¤": 1090,
      "à¦ħà¦Ń": 1091,
      "à¦²à¦¥": 1092,
      "Ġà¦¤à¦¥": 1093,
      "Ġà¦īà¦²à¦ķ": 1094,
      "Ġà¦īà¦ªà¦¤": 1095,
      "Ġà¦Ŀà¦Ĺà¦¡": 1096,
      "à¦ĩà¦¨à¦ķ": 1097,
      "à¦ĩà¦²à¦¸": 1098,
      "à¦Łà¦Ĺ": 1099,
      "à¦²à¦ķà¦°": 1100,
      "Ġà¦ıà¦ķà¦¦": 1101,
      "à¦Ĺà¦Ł": 1102,
      "Ġà¦¡à¦Ĺ": 1103,
      "à¦²à¦ľ": 1104,
      "Ġà¦Ĩà¦¤à¦¶à¦¬": 1105,
      "à¦¥à¦Ł": 1106,
      "à¦§à¦Ľ": 1107,
      "Ġà¦Ŀà¦°à¦¨": 1108,
      "Ġà¦ķà¦²à¦¶": 1109,
      "à¦°à¦¶à¦¸": 1110,
      "Ġà¦¬à¦Ĺ": 1111,
      "à¦¬à¦ª": 1112,
      "Ġà¦¸à¦¦": 1113,
      "Ġà¦Ĩà¦¬à¦¦": 1114,
      "à¦Ĺà¦Ĺà¦²à¦¸": 1115,
      "Ġà¦ħà¦ľ": 1116,
      "à¦Ĺà¦²à¦¯": 1117,
      "à¦¬à¦ĩ": 1118,
      "Ġà¦ľà¦¯": 1119,
      "à¦Ĩà¦Ł": 1120,
      "Ġà¦ªà¦ª": 1121,
      "Ġà¦®à¦¶": 1122,
      "Ġà¦Ĩà¦¦à¦°": 1123,
      "à¦¹à§İ": 1124,
      "à¦·à¦ľà¦¨": 1125,
      "Ġà¦Ĺà¦£": 1126,
      "Ġà¦¸à¦®à¦¤à¦²": 1127,
      "à¦¨à¦ľà¦Ł": 1128,
      "à¦Ľà¦Ĺ": 1129,
      "à¦¸à¦¦": 1130,
      "à¦¸à¦Ĺ": 1131,
      "à¦ªà¦Łà¦²": 1132,
      "à¦Ĺà¦ĩ": 1133,
      "Ġà¦īà¦°": 1134,
      "Ġà¦īà¦ªà¦ľ": 1135,
      "Ġà¦ķà¦¨à¦Ł": 1136,
      "Ġà¦®à¦ª": 1137,
      "à¦ªà¦ŀ": 1138,
      "à¦ĩà¦ī": 1139,
      "Ġà¦¤à¦¤": 1140,
      "Ġà¦ıà¦ĸà¦¨": 1141,
      "Ġà¦¯à¦¤": 1142,
      "Ġà¦ĩà¦īà¦°": 1143,
      "Ġà¦¸à¦°à¦¬à¦°": 1144,
      "Ġà¦ķà¦¨à¦Ń": 1145,
      "00": 1146,
      "ĠâĢĭ": 1147,
      "à¦°à¦ĩ": 1148,
      "à¦Ľà¦Ľ": 1149,
      "à¦ªà¦¶": 1150,
      "à§Ģ,": 1151,
      "à¦Ĺà¦£": 1152,
      "Ġà¦ĩà¦¤": 1153,
      "à¦ĩà¦²à¦Ł": 1154,
      "ĠâĢĭâĢĭ": 1155,
      "à¦¿à¦ĥ": 1156,
      "à¦ķà¦¹": 1157,
      "à¦ķà¦¸à¦¬à¦ľ": 1158,
      "à¦¥à¦ķ": 1159,
      "à¦¥à¦¬": 1160,
      "à¦«à¦¡": 1161,
      "à¦§à¦¬": 1162,
      "à¦ĵà¦¡": 1163,
      "Ġà¦Ŀà¦°à¦Ľ": 1164,
      "à¦ıà¦ª": 1165,
      "à¦¯à¦¤": 1166,
      "à¦·à¦ª": 1167,
      "à¦¿à¦Ĥ-": 1168,
      "Ġà¦Ĩà¦°à¦¬": 1169,
      "à¦°à¦¤à¦²": 1170,
      "à¦ĩà¦Ńà¦ĵà¦¯": 1171,
      "à¦°à¦ĵà¦¯": 1172,
      "à§ģ-": 1173,
      "à¦¸à¦ĵà¦¯": 1174,
      "Ġà¦ħà¦¸à¦®": 1175,
      "Ġà¦īà¦ĩ": 1176,
      "Ġà¦¬à¦¨à¦Ń": 1177,
      "Ġà¦Łà¦ªà¦²": 1178,
      "à¦ķà¦¶à¦ª": 1179,
      "012": 1180,
      "à¦ķà¦¬à¦ķ": 1181,
      "à¦²à¦¦": 1182,
      "à§ģ,": 1183,
      "à¦¸à¦Ļ": 1184,
      "Ġà¦²à¦¤": 1185,
      "Ġà¦Ĩà¦Ľà¦¡": 1186,
      "Ġà¦¶à¦¤": 1187,
      "Ġà¦Ĺà¦ł": 1188,
      "Ġà¦ħà¦¶": 1189,
      "à¦īà¦ł": 1190,
      "à¦ĵà¦°": 1191,
      "Ġà¦Ŀà¦¡": 1192,
      "à¦ĺà¦Łà¦¨": 1193,
      "Ġà¦¦à¦²à¦Ł": 1194,
      "Ġà¦ľà¦¨à¦¸à¦®à¦ķ": 1195,
      "Ġà¦¬à¦Ł": 1196,
      "à¦¡à¦ķ": 1197,
      "Ġà¦Ĩà¦¹à¦¤": 1198,
      "Ġà¦ıà¦ĩà¦®": 1199,
      "Ġà¦īà¦¤à¦°": 1200,
      "à¦ħà¦Ĺ": 1201,
      "à¦¡à¦²à¦¸": 1202,
      "à¦¨à¦ĵà¦¯": 1203,
      "Ġà¦²à¦£": 1204,
      "Ġà¦ĩà¦ī": 1205,
      "à¦ħà¦¦": 1206,
      "Ġà¦¦à¦£": 1207,
      "Ġà¦ļà¦ªà¦¸": 1208,
      "Ġà¦ĺà¦Łà¦¨": 1209,
      "Ġà¦¡à¦²": 1210,
      "Ġà¦ıà¦ĸ": 1211,
      "à¦¼à¦¾à¥¤": 1212,
      "Ġà¦ĸà¦¯": 1213,
      "à¦§à¦°à¦¨": 1214,
      "Ġà¦ħà¦¨à¦¨": 1215,
      "Ġà¦ĵà¦°": 1216,
      "Ġà¦¸à¦¬à¦ļ": 1217,
      "Ġà¦ĩà¦ľ": 1218,
      "à¦Ĩà¦¯": 1219,
      "à¦ķà¦¨à¦¸": 1220,
      "à¦¨à¦ª": 1221,
      "à¦²à¦°": 1222,
      "à§ģà¦ĥ": 1223,
      "à¦Ľà¦ķ": 1224,
      "à¦¼à§ĩ,": 1225,
      "à¦ªà¦ľ": 1226,
      "à¦¶à¦ªà¦¥": 1227,
      "Ġà¦¨à¦ľà¦°": 1228,
      "Ġà¦ıà¦¦": 1229,
      "Ġà¦ľà¦Ł": 1230,
      "Ġà¦īà¦ķ": 1231,
      "à¦łà¦¬": 1232,
      "à¦Ńà¦°": 1233,
      "à¦ĵà¦¨": 1234,
      "Ġà¦ĩà¦®": 1235,
      "à¦°à¦®à¦£à¦ķ": 1236,
      "Ġà¦Ĩà¦Łà¦ľà¦¨": 1237,
      "Ġà¦Ī": 1238,
      "à¦¨à¦¶": 1239,
      "à¦¨à¦ĵ": 1240,
      "Ġà¦ªà¦Ľà¦¨": 1241,
      "Ġà¦¬à¦Łà¦®": 1242,
      "à¦ľà¦¸à¦ľ": 1243,
      "Ġà¦Ĩà¦¨à¦Ľ": 1244,
      "à¦Ĺà¦°à¦®": 1245,
      "Ġà¦īà¦°à¦¨": 1246,
      "à¦Ĩà¦¶": 1247,
      "à¦Ĩà¦ĩà¦¸": 1248,
      "à¦¯à¦Łà¦¨": 1249,
      "Ġà¦Ĩà¦¨à¦²": 1250,
      "à¦Ľà¦Ł": 1251,
      "Ġà¦ıà¦ķà¦§à¦°à¦¨": 1252,
      "à¦ľà¦Ĺ": 1253,
      "à¦¬à¦Ł": 1254,
      "Ġà¦¸à¦¡": 1255,
      "Ġà¦¸à¦Ń": 1256,
      "à¦ªà¦¬": 1257,
      "Ġà¦Ĺà¦¹à¦¨": 1258,
      "à¦¯à¦ķà¦°": 1259,
      "à¦¯à¦ķà¦²": 1260,
      "à¦īà¦®": 1261,
      "à¦Ŀà¦¡": 1262,
      "à¦ĩà¦Łà¦ķ": 1263,
      "à¦°à¦¹à¦°": 1264,
      "à¦®à¦°à¦¤": 1265,
      "Ġà¦ıà¦¤": 1266,
      "à¦Ĺà¦Ľ": 1267,
      "Ġà¦ĸà¦ļ": 1268,
      "Ġà¦¡à¦ľà¦¨": 1269,
      "Ġà¦ľà¦²à¦ªà¦¥": 1270,
      "à¦Ĩà¦¬à¦°": 1271,
      "Ġà¦īà¦ªà¦¡": 1272,
      "à¦¯à¦Łà¦ķà¦¦": 1273,
      "Ġà¦ªà¦Ļ": 1274,
      "à¦ıà¦ķà¦ľ": 1275,
      "à¦¦à¦Ł": 1276,
      "à¦¶à¦ľà¦¨": 1277,
      "Ġà¦²à¦¬": 1278,
      "à¦§à¦°": 1279,
      "à¦ĩà¦¡à¦²": 1280,
      "Ġà¦Ĩà¦®à¦°": 1281,
      "à¦ĩà¦®à¦¸": 1282,
      "à¦ıà¦®à¦ıà¦ķ": 1283,
      "įà§į": 1284,
      "à¦²à¦ķà¦Ł": 1285,
      "à¦¸à¦¡": 1286,
      "à¦¡à¦¹": 1287,
      "Ġà¦¸à¦ŀ": 1288,
      "à¦¦à¦¡": 1289,
      "à¦ªà¦Ĺ": 1290,
      "à¦ĸà¦ķ": 1291,
      "à¦£à¦¬à¦¨": 1292,
      "à¦łà¦ª": 1293,
      "Ġà¦ľà¦¨à¦¸": 1294,
      "à¦Ŀà¦ķ": 1295,
      "âĢįà§į": 1296,
      "Ġ9": 1297,
      "à¦ķà¦«": 1298,
      "à¦¯à¦¥": 1299,
      "à¦¼-": 1300,
      "à¦®à§İà¦ķ": 1301,
      "Ġà¦Ĩà¦¤": 1302,
      "Ġà¦¡à¦²à¦«": 1303,
      "Ġà¦ķà¦®à¦ª": 1304,
      "à¦Łà¦°à¦ļ": 1305,
      "à¦ľà¦²à¦ª": 1306,
      "à¦Ĩà¦Łà¦ľà¦¨": 1307,
      "à¦°à¦¡": 1308,
      "Ġà¦ķà¦¡": 1309,
      "à¦·à¦®": 1310,
      "Ġà¦ļà¦ĵà¦¡": 1311,
      "Ġà¦Łà¦¹à¦²": 1312,
      "à¦§à¦¤": 1313,
      "Ġà¦«à¦¡": 1314,
      "à¦²à¦ķà¦ķ": 1315,
      "Ġà¦¤à¦°à¦ķ": 1316,
      "à¦ıà¦¯": 1317,
      "Ġà¦īà¦ªà¦ķà¦°à¦£": 1318,
      "à¦¬à¦¦à¦®": 1319,
      "à¦¦à¦®à¦ķà¦²à¦ķà¦°": 1320,
      "Ġà¦ıà¦ĸà¦¨à¦ĵ": 1321,
      "Ġ7": 1322,
      "à¦Łà¦«": 1323,
      "à¦²à¦ŀ": 1324,
      "à¦¼à§į": 1325,
      "Ġà¦¸à¦ķà¦²": 1326,
      "à¦ªà¦¯": 1327,
      "Ġà¦ļà¦®à§İà¦ķ": 1328,
      "Ġà¦Ńà¦°à¦Ľ": 1329,
      "à¦Ńà¦¬": 1330,
      "Ġà¦¥à¦²": 1331,
      "à¦īà¦ĩà¦¯": 1332,
      "Ġà¦ĩà¦īà¦Ł": 1333,
      "Ġà¦ľà¦²à¦¦à¦¸": 1334,
      "Ġà¦īà¦²à¦Ł": 1335,
      "Ġà¦¶à¦¹à¦°à¦¤à¦²": 1336,
      "à¦°à¦®à¦¨": 1337,
      "à¦ľà¦ª": 1338,
      "Ġà¦ķà¦°à¦¬": 1339,
      "à¦łà¦ķ": 1340,
      "Ġà¦ħà¦²à¦¸": 1341,
      "à¦¬à¦¤à¦®": 1342,
      "Ġà§¬": 1343,
      "à¦¯à¦ľà¦¨à¦ķ": 1344,
      "Ġ2012": 1345,
      "à¦¨à¦°à¦ķ": 1346,
      "à§ĭ,": 1347,
      "Ġà¦¦à¦¸": 1348,
      "à¦¶à¦ļ": 1349,
      "à¦Ĺà¦¦": 1350,
      "Ġà¦īà§İà¦¸": 1351,
      "à¦ĩà¦īà¦Ń": 1352,
      "Ġ8": 1353,
      "à§ĩ!": 1354,
      "à¦Łà¦ľ": 1355,
      "à¦Łà¦¹": 1356,
      "à¦ľà¦¬": 1357,
      "Ġà¦Ĩà¦Ń": 1358,
      "à¦¶à¦¸": 1359,
      "à¦¹à¦ķà¦°": 1360,
      "à¦·à¦ķà¦°": 1361,
      "à¦ĩà¦Ĺ": 1362,
      "Ġà¦¯à¦¦": 1363,
      "à¦Ĺà¦ķ": 1364,
      "à¦£à¦¦": 1365,
      "Ġà¦ĩà¦¹": 1366,
      "Ġà¦Ńà¦¬à¦¨à¦Ĺ": 1367,
      "à¦¬à¦¸à¦¤": 1368,
      "à¦ľà¦²à¦¦à¦¸": 1369,
      "Ġà¦ıà¦¸à¦ĩà¦īà¦Ń": 1370,
      "Ġà¦Īà¦Ĺà¦²": 1371,
      "à¦°à¦·": 1372,
      "à¦°à¦¬à¦°": 1373,
      "à¦ľà¦¤": 1374,
      "à¦¸à¦ķà¦Ł": 1375,
      "Ġà¦¦à¦¶à¦ķ": 1376,
      "Ġà¦®à¦ĩà¦¯": 1377,
      "à¦ļà¦¸": 1378,
      "à¦ªà¦ķà¦²": 1379,
      "Ġà¦¯à¦®à¦ľ": 1380,
      "Ġà¦ļà¦°à¦®": 1381,
      "Ġà¦«à¦£": 1382,
      "à¦£à¦¸": 1383,
      "Ġà¦ĺà¦·": 1384,
      "à¦īà§İ": 1385,
      "à¦ĩà¦¨à¦Ĺ": 1386,
      "à¦¤à¦°à¦Ļ": 1387,
      "Ġà¦ĺà¦°à¦¬": 1388,
      "à¦°à¦¬à¦£": 1389,
      "à¦¦à¦¨à¦ķ": 1390,
      "à¦ĩà¦ľà¦¡": 1391,
      "Ġà¦ķà¦¬à¦°à¦¸": 1392,
      "à¦ıà¦¸à¦ı": 1393,
      "..": 1394,
      "ĠâĢ": 1395,
      "à¦°à¦¥": 1396,
      "à¦ķà¦¸à¦ľ": 1397,
      "à¦ľà¦Ł": 1398,
      "Ġà¦ķà¦Ļ": 1399,
      "Ġà¦ķà¦¬à¦°": 1400,
      "Ġà¦®à¦Łà¦°": 1401,
      "Ġà¦¸à¦ł": 1402,
      "à¦ıà¦ķà¦ª": 1403,
      "à¦¶à¦¬": 1404,
      "Ġà¦²à¦²": 1405,
      "Ġà¦ıà¦²à¦®": 1406,
      "à¦Ĺà¦ĵà¦¯": 1407,
      "Ġà¦ħà¦¬à¦¯": 1408,
      "à¦īà¦¦": 1409,
      "à¦īà¦·": 1410,
      "à¦īà¦Ĺ": 1411,
      "à¦Łà¦¬à¦²à¦ķ": 1412,
      "à¦ħà¦°": 1413,
      "à¦ıà¦¨": 1414,
      "à¦Ĩà¦¡": 1415,
      "à¦¼à§Ģà¥¤": 1416,
      "à¦Łà¦¦": 1417,
      "Ġà¦ķà¦£": 1418,
      "à¦¤à¦Ĺ": 1419,
      "à¦ĩà¦īà¦°": 1420,
      "Ġà¦¨à¦®à¦¨": 1421,
      "Ġà¦Ĺà¦¦": 1422,
      "Ġà¦®à¦¹à¦¡": 1423,
      "Ġà¦ĺà¦Łà¦Ľ": 1424,
      "à¦¦à¦°à¦Ń": 1425,
      "à¦Ĩà¦¬à¦Ľ": 1426,
      "à¦¼à§ĭ-": 1427,
      "à¦ªà¦¨à¦¸à¦°": 1428,
      "à¦°à¦ĵà¦²": 1429,
      "à¦¯à¦Ĺ": 1430,
      "à¦¯à¦Ļ": 1431,
      "à¦¯à¦°à¦¤": 1432,
      "à¦ļà¦ĵà¦¯": 1433,
      "Ġà¦ıà¦®": 1434,
      "à¦¥à¦Ĺ": 1435,
      "Ġà¦Łà¦ķ": 1436,
      "à¦Ŀà¦¬à¦¯": 1437,
      "à¦īà¦¨à¦Ł": 1438,
      "Ġà¦ľà¦²à¦°": 1439,
      "à¦ĺà¦Ł": 1440,
      "à¦ķà¦¤à¦ķà¦Ĺ": 1441,
      "Ġà¦¶à¦°à§İà¦ķ": 1442,
      "âĢĻ": 1443,
      "à¦¨à¦°à¦¤": 1444,
      "à¦Łà¦¯": 1445,
      "à¦¯à¦ľ": 1446,
      "à¦¸à¦ļ": 1447,
      "à¦¡à¦ª": 1448,
      "Ġà¦Ĩà¦ĩ": 1449,
      "Ġà¦Ĩà¦ĩà¦¨": 1450,
      "Ġà¦°à¦®à¦¨": 1451,
      "à¦Ĺà¦ł": 1452,
      "à¦Ĺà¦²à¦ķ": 1453,
      "Ġà¦ļà¦°à¦ķ": 1454,
      "Ġà¦ĸà¦¨": 1455,
      "à¦£à¦¨": 1456,
      "à¦ĺà¦¨": 1457,
      "Ġà¦¦à¦²à¦Ĺ": 1458,
      "Ġà¦Ĩà¦²à¦ĸ": 1459,
      "Ġà¦¶à¦¹à¦°à¦ķ": 1460,
      "âĢĿ": 1461,
      "à¦°à¦Ŀà¦¡": 1462,
      "à¦ķà¦Ŀà¦ķ": 1463,
      "à¦¨à¦²": 1464,
      "à¦¼à§Ĥ": 1465,
      "à¦®à¦£": 1466,
      "Ġà¦ķà¦°à¦®à¦°": 1467,
      "Ġà¦Łà¦¸": 1468,
      "Ġà¦Ŀà¦ķà¦Ŀà¦ķ": 1469,
      "à¦ıà¦¬": 1470,
      "à¦¦à¦¨à¦®": 1471,
      "Ġà¦ĩà¦¨à¦²": 1472,
      "Ġ10": 1473,
      "Ġ12": 1474,
      "à¦¸à¦«à¦¡": 1475,
      "à¦īà§İà¦¸à¦¬": 1476,
      "Ġà¦¬à¦ī": 1477,
      "Ġà¦®à¦¶à¦²": 1478,
      "à¦ľà¦¨à¦¤": 1479,
      "à¦ªà¦®": 1480,
      "Ġà¦Ĩà¦ĩà¦ªà¦¡": 1481,
      "à¦·à¦ľ": 1482,
      "à¦ĩà¦¹": 1483,
      "Ġà¦¨à¦¬à¦¦à¦®": 1484,
      "à¦¼à¦¾-": 1485,
      "Ġà¦Ĺà¦ľ": 1486,
      "Ġà¦ļà¦Ł": 1487,
      "à¦«à¦°à¦®": 1488,
      "Ġà¦Ńà¦¬": 1489,
      "à¦łà¦®": 1490,
      "à¦łà¦¶": 1491,
      "Ġà¦ĺà¦£": 1492,
      "Ġà¦ĺà¦·à¦Ľ": 1493,
      "Ġà¦ľà¦¨à¦¬à¦¸à¦¤": 1494,
      "à¦Ŀà¦ªà¦¥": 1495,
      "à¦Łà¦ªà¦²": 1496,
      "à¦ħà¦ª": 1497,
      "à¦²à¦ķà¦¯": 1498,
      "à¦²à¦ķà¦¦": 1499,
      "Ġà¦īà¦łà¦²": 1500,
      "à¦Ĩà¦ªà¦¨": 1501,
      "Ġà¦¬à¦ĩà¦¤": 1502,
      "Ġà¦Ĩà¦¬à¦°à¦£": 1503,
      "Ġà¦¤à¦²à¦¦": 1504,
      "à¦¨à¦¸à¦ĩ": 1505,
      "ĠâĢľ": 1506,
      "à¦¾)": 1507,
      "à¦ķà¦§": 1508,
      "à¦¨à¦®": 1509,
      "à¦¨à¦¶à¦¨": 1510,
      "Ġà¦ªà¦ªà¦¸": 1511,
      "à¦¶à¦¬à¦¨": 1512,
      "à¦¹à¦ķà¦ķ": 1513,
      "Ġà¦ªà¦°à¦¤": 1514,
      "Ġà¦¨à¦°à¦®": 1515,
      "Ġà¦Ľà¦Ł": 1516,
      "Ġà¦ĸà¦°": 1517,
      "Ġà¦ĸà¦ŀ": 1518,
      "Ġà¦ħà¦¬à¦°": 1519,
      "Ġà¦«à¦¯": 1520,
      "à¦£à¦¤": 1521,
      "Ġà¦ĺà¦Ł": 1522,
      "Ġà¦¡à¦¬à¦²": 1523,
      "à¦ĺà¦¡": 1524,
      "à¦ħà¦¤": 1525,
      "à¦ħà¦Ĺà¦Ń": 1526,
      "à§Ń": 1527,
      "à¦°à¦¶à¦®": 1528,
      "à¦²à¦ªà¦¤": 1529,
      "Ġà¦ıà¦ķà¦ļ": 1530,
      "Ġà¦ªà¦ªà¦ķà¦°": 1531,
      "à¦ľà¦ªà¦¥": 1532,
      "à¦ľà¦¬à¦¬": 1533,
      "Ġà¦ķà¦ķà¦Ł": 1534,
      "Ġà¦Ĩà¦ĸà¦¡": 1535,
      "à¦¶à¦§": 1536,
      "à¦¶à¦ĵà¦¯": 1537,
      "à¦ĸà¦°": 1538,
      "Ġà¦Ńà¦°à¦ª": 1539,
      "à¦Ļà¦°": 1540,
      "à¦Ļà¦Ľ": 1541,
      "Ġà¦ĵà¦ĩ": 1542,
      "Ġà¦ľà¦¨à¦¬à¦¹": 1543,
      "Ġà¦¬à¦²à¦Ĺ": 1544,
      "à¦¬à¦ķà¦Ĺ": 1545,
      "Ġà¦īà¦ªà¦ļ": 1546,
      "à¦·à¦ķà¦¦": 1547,
      "à¦ľà¦®à¦¹à¦²": 1548,
      "Ġà¦ıà¦ķà¦®": 1549,
      "à§ĭ'": 1550,
      "Ġà¦¬à¦§": 1551,
      "à¦¤à¦ķà¦¦": 1552,
      "à¦¸à¦Ń": 1553,
      "Ġà¦¸à¦°à¦ķ": 1554,
      "Ġà¦ķà¦°à¦²": 1555,
      "Ġà¦¹à¦¸": 1556,
      "à¦ĸà¦ĵà¦¯": 1557,
      "Ġà¦¯à¦¥": 1558,
      "Ġà¦ļà¦®à¦ķ": 1559,
      "Ġà¦ĸà¦£": 1560,
      "Ġà¦¸à¦®à¦¬": 1561,
      "Ġà¦ľà¦²à¦¯": 1562,
      "à¦ĩà¦¨à¦²": 1563,
      "à¦°à¦ªà¦¯": 1564,
      "à¦ĩà¦Łà¦¬": 1565,
      "à¦Ĩà¦®à¦°": 1566,
      "Ġà¦īà¦ªà¦¯": 1567,
      "Ġà§Ń": 1568,
      "Ġà¦Ĩà¦¸à¦¤": 1569,
      "Ġà¦ĩà¦¨à¦«": 1570,
      "à¦°à¦¶à¦®à¦ķ": 1571,
      "Ġà¦Ĳ": 1572,
      "à¦°à¦¬à¦²": 1573,
      "à§ģà¦Ĥ": 1574,
      "Ġà¦ªà¦ŀ": 1575,
      "à¦¤à¦Ľ": 1576,
      "à¦¤à¦ļ": 1577,
      "Ġà¦®à¦£": 1578,
      "à¦ľà¦¨à¦¸à¦®": 1579,
      "Ġà¦¸à¦¶à¦¸": 1580,
      "à¦ļà¦¬": 1581,
      "Ġà¦Ĩà¦¹": 1582,
      "à¦·à¦¨": 1583,
      "Ġà¦¤à¦®": 1584,
      "à¦Ĺà¦ļ": 1585,
      "à¦īà¦ĩà¦¨": 1586,
      "Ġà¦ĵà¦·": 1587,
      "Ġà¦¸à¦®à¦Ń": 1588,
      "Ġà¦ĩà¦īà¦ķ": 1589,
      "Ġà¦¬à¦²à¦¦": 1590,
      "à¦°à¦¸à¦ķ": 1591,
      "à¦°à¦¸à¦¬": 1592,
      "Ġà¦Ĩà¦²à¦¤": 1593,
      "à¦ĩà¦²à¦¯": 1594,
      "Ġà¦¬à¦ĩà¦Ľ": 1595,
      "à¦¤à¦²à¦ľ": 1596,
      "Ġà¦īà¦²à¦Ļ": 1597,
      "à¦°à¦ļà¦£": 1598,
      "Ġà¦ĩà¦¨à¦¸": 1599,
      "Ġà¦ħà¦¬à¦¶": 1600,
      "à¦°à¦ĸà¦°": 1601,
      "à¦Ĩà¦ĩà¦¸à¦ķ": 1602,
      "10": 1603,
      "à§¦": 1604,
      "à§®": 1605,
      "à¦ķà¦ł": 1606,
      "à¦²à¦®à¦²": 1607,
      "à¦Ľà¦¤": 1608,
      "Ġà¦ıà¦ķà¦¯": 1609,
      "Ġà¦ıà¦ķà¦¬": 1610,
      "Ġà¦ªà¦®": 1611,
      "Ġà¦ķà¦ķà¦ª": 1612,
      "à¦¤à¦¬à¦ķ": 1613,
      "Ġà¦¦à¦¶à¦ľà¦¨": 1614,
      "à¦¡à¦Ń": 1615,
      "Ġà¦Ĩà¦²à¦®": 1616,
      "Ġà¦Ĩà¦ĩà¦«": 1617,
      "à¦¶à¦¤": 1618,
      "à¦¶à¦°à¦¤": 1619,
      "Ġà¦ļà¦°à¦Ľ": 1620,
      "à¦«à¦¸": 1621,
      "Ġà¦¬à¦¸à¦¨": 1622,
      "à¦ĵà¦Ĺ": 1623,
      "à¦°à¦¤à¦Ł": 1624,
      "à¦ĩà¦¨à¦¡": 1625,
      "à¦ħà¦ªà¦°": 1626,
      "Ġà¦ļà¦²à¦¤": 1627,
      "Ġà¦ªà¦¤à¦¨": 1628,
      "Ġà¦Ĩà¦Ĺà¦¤": 1629,
      "à¦īà¦ľà¦¸": 1630,
      "à¦ĩà¦«à¦Ĺ": 1631,
      "Ġà¦ħà¦¬à¦¸à¦°": 1632,
      "Ġà¦ķà¦¤à¦ķà¦Ĺ": 1633,
      "Ġà¦Ĺà¦£à¦ªà¦°": 1634,
      "Ġà¦Ľà¦Łà¦«à¦Ł": 1635,
      "19": 1636,
      "Ġ.": 1637,
      "Ġà¦Ĭ": 1638,
      "à¦¾à¦¾": 1639,
      "à§ģâĢĻ": 1640,
      "Ġà¦ıà¦ķà¦ĩà¦Ń": 1641,
      "Ġà¦ªà¦ľ": 1642,
      "Ġà¦ķà¦¦à¦®": 1643,
      "à¦¤à¦ĵà¦¯": 1644,
      "à¦¬à¦ĩà¦¯": 1645,
      "à¦ľà¦¨à¦¶": 1646,
      "à¦¡à¦¶": 1647,
      "à¦®à¦«à¦²": 1648,
      "à¦ļà¦®": 1649,
      "à¦ªà¦¶à¦®": 1650,
      "Ġà¦Ĩà¦²à¦¨": 1651,
      "à¦¹à¦£à¦ķ": 1652,
      "Ġà¦¹à¦ªà¦¸": 1653,
      "Ġà¦¶à¦¯": 1654,
      "à¦ĸà¦¬à¦¨": 1655,
      "à¦Ĺà¦Ĺ": 1656,
      "à¦¼à¦¿,": 1657,
      "Ġà¦ħà¦ļ": 1658,
      "à¦Ńà¦¡": 1659,
      "à¦ĵà¦ķ": 1660,
      "à¦ĵà¦ķà¦²": 1661,
      "à¦¨à¦ľà¦¨à¦ķ": 1662,
      "à¦¬à¦°à¦Ł": 1663,
      "à¦Łà¦ªà¦Ł": 1664,
      "à¦¤à¦°à¦ķ": 1665,
      "à¦ıà¦Ĺ": 1666,
      "à¦Ĩà¦§": 1667,
      "à¦ĩà¦²à¦ªà¦²": 1668,
      "à§İà¦¶": 1669,
      "à§İà¦¸à¦ķ": 1670,
      "à¦ļà¦ķà¦ļà¦ķ": 1671,
      "Ġà¦ıà¦®à¦¨à¦Ń": 1672,
      "Ġ50": 1673,
      "Ġà¦ĩà¦īà¦ıà¦¸à¦ı": 1674,
      "2012": 1675,
      "Ġ$": 1676,
      "Ķà¦·": 1677,
      "à¦Łà¦²à¦¨": 1678,
      "à§ģà§į": 1679,
      "à¦¤à¦ķà¦ķ": 1680,
      "à¦¬à¦Ń": 1681,
      "Ġà¦¦à¦¶": 1682,
      "à¦¦à¦¤": 1683,
      "à¦¦à¦¶": 1684,
      "à¦¦à¦Ĺ": 1685,
      "Ġà¦Ĩà¦ł": 1686,
      "Ġà¦Ĩà¦¬à¦ķ": 1687,
      "Ġà¦Ĩà¦ĩà¦¡": 1688,
      "Ġà¦Ĩà¦ĩà¦ª": 1689,
      "à¦·à¦®à¦¤": 1690,
      "à¦ĩà¦ªà¦°": 1691,
      "Ġà¦¨à¦¥": 1692,
      "Ġà¦°à¦¬": 1693,
      "à¦Ĺà¦¸": 1694,
      "à¦¥à¦¦": 1695,
      "Ġà¦¬à¦¸à¦¤": 1696,
      "à¦£à¦ļ": 1697,
      "à¦īà¦ªà¦ľ": 1698,
      "Ġà¦ĵà¦¬": 1699,
      "Ġà¦ĵà¦°à¦¨": 1700,
      "Ġà¦¢à¦²": 1701,
      "Ġà¦¬à¦¨à¦«": 1702,
      "Ġà¦Ĩà¦Ĺà¦®à¦¨": 1703,
      "Ġ11": 1704,
      "Ġ13": 1705,
      "Ķà¦·à¦§": 1706,
      "à§ĩ)": 1707,
      "à¦¨à¦ı": 1708,
      "à¦Łà¦Ĩà¦īà¦Ł": 1709,
      "à¦¼,": 1710,
      "Ġà¦ķà¦Ł": 1711,
      "à¦¤à¦¸": 1712,
      "Ġà¦®à¦Ł": 1713,
      "Ġà¦®à¦ĸ": 1714,
      "à¦¦à¦®à¦¯": 1715,
      "Ġà¦Ĩà¦ľ": 1716,
      "Ġà¦¤à¦¬": 1717,
      "Ġà¦Ľà¦¨": 1718,
      "Ġà¦ľà¦¬": 1719,
      "Ġà¦ľà¦²à¦Ľ": 1720,
      "Ġà¦ļà¦Łà¦ªà¦Ł": 1721,
      "Ġà¦ĸà¦¬": 1722,
      "Ġà¦ħà¦£": 1723,
      "Ġà¦«à¦°à¦®": 1724,
      "Ġà¦«à¦²à¦ķ": 1725,
      "à¦łà¦ķà¦¯": 1726,
      "à¦Ńà¦Ł": 1727,
      "à¦ĵà¦¬": 1728,
      "Ġà¦¡à¦®": 1729,
      "à¦ķà¦Łà¦ª": 1730,
      "Ġà¦ĩà¦Łà¦Ń": 1731,
      "à¦²à¦ķà¦Ń": 1732,
      "à¦Ĩà¦¬": 1733,
      "Ġà¦Ĩà¦²à¦Ĺ": 1734,
      "Ġà¦ħà¦ªà¦¸": 1735,
      "à¦°à¦£à¦Ń": 1736,
      "Ġà¦Ĺà¦²à¦¦": 1737,
      "à¦ķà¦²à¦¸": 1738,
      "Ġà¦Ĩà¦īà¦Łà¦«": 1739,
      "Ġà¦¶à¦Łà¦Ĺ": 1740,
      "Ġà¦ĸà¦¨à¦¨à¦ķ": 1741,
      "Ġà¦¨à¦Ĺà¦¦": 1742,
      "008": 1743,
      "à§·": 1744,
      "à¦²à¦¹": 1745,
      "à¦²à¦¡à¦Ĺ": 1746,
      "Ġà¦ªà¦Ł": 1747,
      "Ġà¦®à¦¸à¦²": 1748,
      "à¦®à¦«": 1749,
      "Ġà¦Ĩà¦²à¦ķ": 1750,
      "à¦·à¦ĵ": 1751,
      "Ġà¦¤à¦¬à¦²": 1752,
      "Ġà¦¹à¦¤à¦¬": 1753,
      "Ġà¦ļà¦ª": 1754,
      "Ġà¦ļà¦ŀ": 1755,
      "Ġà¦¬à¦¸à¦¬": 1756,
      "à¦ªà¦°à¦¤": 1757,
      "Ġà¦¸à¦®à¦ķ": 1758,
      "Ġà¦Ŀà¦²à¦ķ": 1759,
      "Ġà¦Ŀà¦²à¦¸": 1760,
      "Ġà¦¸à¦¬à¦ķ": 1761,
      "à¦Ŀà¦®": 1762,
      "Ġà¦ľà¦²à¦¨": 1763,
      "Ġà¦ħà¦ªà¦°à¦ľà¦¨": 1764,
      "à¦¸à¦¬à¦²à¦ķ": 1765,
      "à¦°à¦¦à¦ķ": 1766,
      "à¦¯à¦®à¦¯": 1767,
      "Ġà¦Ĩà¦ļà¦°à¦£": 1768,
      "Ġà¦Ĩà¦¨à¦¤": 1769,
      "Ġà¦¶à¦Łà¦Ł": 1770,
      "à¦¶à¦¹à¦°à¦¤à¦²": 1771,
      "Ġà¦®à¦Łà¦°à¦¶": 1772,
      "Ġà¦ļà¦Łà¦ķà¦¦": 1773,
      "Ġà¦®à¦ĸà¦®à¦²": 1774,
      "11": 1775,
      "Ķà¦ªà¦¨": 1776,
      "à¦°à¦Łà¦ª": 1777,
      "à¦Łà¦ħà¦«": 1778,
      "à¦²à¦ķà¦Ĺ": 1779,
      "à¦¯à¦Ń": 1780,
      "Ġà¦¬à¦¶": 1781,
      "à¦ľà¦¸à¦ªà¦¤": 1782,
      "à¦¬à¦®": 1783,
      "à¦ļà¦¯": 1784,
      "Ġà¦Ĩà¦Łà¦Ł": 1785,
      "à¦¹à¦¬": 1786,
      "à¦Ĥ-": 1787,
      "à¦ĸà¦Ń": 1788,
      "Ġà¦°à¦¨": 1789,
      "à¦¼à¦¿-": 1790,
      "Ġà¦ħà¦ķà¦ª": 1791,
      "à¦«à¦¨": 1792,
      "à¦«à¦¤": 1793,
      "à¦§à¦ķà¦¤": 1794,
      "Ġà¦§à¦¡": 1795,
      "à¦Ļà¦²": 1796,
      "à¦£à¦ķà¦°": 1797,
      "Ġà¦ľà¦¨à¦ķ": 1798,
      "Ġà¦ĩà¦ļ": 1799,
      "Ġà¦ĩà¦¸à¦°": 1800,
      "à¦Łà¦¬à¦²à¦Ł": 1801,
      "à¦ħà¦¬": 1802,
      "Ġà¦¦à¦²à¦¬à¦¦": 1803,
      "à¦Ĩà¦¦": 1804,
      "à¦°à¦ķà¦¦": 1805,
      "à¦ĩà¦¡à¦®": 1806,
      "Ġà¦¬à¦¹à¦¨à¦¯": 1807,
      "Ġà¦ľà¦®à¦ķ": 1808,
      "Ġà¦ıà¦®à¦¨à¦ķ": 1809,
      "Ġ30": 1810,
      "Ġà¦¨à¦¤à¦ľ": 1811,
      "à¦Ĩà¦īà¦Łà¦¡": 1812,
      "à¦Ĺà¦£à¦ªà¦°": 1813,
      "Ġà¦īà¦ĩà¦Ĺ": 1814,
      "à¦¨à¦ıà¦ĩà¦¡": 1815,
      "Ġà¦ħà¦ķà¦ªà¦Ł": 1816,
      "à¦¾;": 1817,
      "à¦°à¦£à¦ķ": 1818,
      "à¦°à¦Ĩà¦¨": 1819,
      "à¦¨à¦¬à¦¦à¦®": 1820,
      "à¦²à¦ĵà¦Ń": 1821,
      "à¦¯à¦ĸà¦¨": 1822,
      "à¦Ľà¦¡": 1823,
      "Ġà¦¬à¦¦à¦¨": 1824,
      "à¦ľà¦¦": 1825,
      "à¦¸à¦²à¦®": 1826,
      "à¦¸à¦«à¦²": 1827,
      "Ġà¦¦à¦°à¦ķ": 1828,
      "Ġà¦¦à¦¶à¦Ł": 1829,
      "à¦¡à¦ıà¦¯": 1830,
      "Ġà¦¸à¦ª": 1831,
      "Ġà¦¸à¦ĵà¦¯": 1832,
      "Ġà¦¸à¦°à¦²": 1833,
      "Ġà¦Ĩà¦ĩà¦ķ": 1834,
      "Ġà¦Ĩà¦ĩà¦°": 1835,
      "Ġà¦Ĩà¦¸à¦²": 1836,
      "à¦¹à¦Ł": 1837,
      "Ġà¦¤à¦Ł": 1838,
      "Ġà¦¤à¦¦": 1839,
      "Ġà¦¤à¦¦à¦¨": 1840,
      "Ġà¦¨à¦Ĺà¦°": 1841,
      "à¦ĸà¦Ł": 1842,
      "Ġà¦¯à¦¤à¦Ł": 1843,
      "Ġà¦°à¦Łà¦ĵà¦¯": 1844,
      "Ġà¦°à¦®à¦£": 1845,
      "à¦¥à¦¸": 1846,
      "à¦«à¦²à¦ķ": 1847,
      "à¦§à¦Ł": 1848,
      "Ġà¦«à¦Łà¦ķ": 1849,
      "Ġà¦ĩà¦ķ": 1850,
      "Ġà¦¸à¦¹à¦ľ": 1851,
      "à¦ĩà¦¨à¦Ł": 1852,
      "à¦ĩà¦¨à¦®": 1853,
      "à¦ħà¦ķ": 1854,
      "à¦²à¦ķà¦¨": 1855,
      "à¦¦à¦°à¦¬à¦¨": 1856,
      "à¦¶à¦¨à¦ķ": 1857,
      "Ġà¦¤à¦°à¦¬": 1858,
      "à¦¤à¦°à¦¯": 1859,
      "à¦ĩà¦Łà¦°": 1860,
      "à¦ıà¦²à¦®": 1861,
      "à¦Ĩà¦°à¦¬": 1862,
      "à¦Ĩà¦°à¦ĵ": 1863,
      "Ġà¦¶à¦¹à¦°à¦Ł": 1864,
      "à¦Ĺà¦²à¦ĵà¦¯": 1865,
      "à¦¸à¦®à¦¯": 1866,
      "Ġà§®": 1867,
      "à¦¹à¦²à¦¯": 1868,
      "Ġà¦¬à¦°à¦«à¦¯": 1869,
      "à¦Ĺà¦ľà¦Ł": 1870,
      "Ġà¦ħà¦¸à¦¹": 1871,
      "Ġà¦ķà¦¨à¦¡à¦®": 1872,
      "à¦¦à¦¨à¦¶": 1873,
      "Ġ20": 1874,
      "Ġà¦īà§İà¦ª": 1875,
      "Ġ53": 1876,
      "à¦ĩà¦īà¦ıà¦¸à¦ı": 1877,
      "à¦ľà¦¨à¦¸à¦®à¦ķ": 1878,
      "13": 1879,
      "Ġ..": 1880,
      "à¦Łà¦§": 1881,
      "à¦²à¦§": 1882,
      "à¦¯à¦ĩ": 1883,
      "à¦¼à¦Ĥ": 1884,
      "à¦ľà¦ķà¦¨": 1885,
      "Ġà¦ķà¦¬à¦²": 1886,
      "Ġà¦ķà¦¤à¦Ł": 1887,
      "à¦¤à¦°à¦®": 1888,
      "à¦¤à¦ķà¦°": 1889,
      "Ġà¦®à§İà¦¸": 1890,
      "à¦ľà¦¨à¦Ĺà¦£": 1891,
      "à¦®à¦ĵà¦¯": 1892,
      "à¦®à¦°à¦£": 1893,
      "à¦¦à¦¶à¦ľà¦¨": 1894,
      "à¦ĩà¦²à¦¨": 1895,
      "à¦ĩà¦ĵà¦Ń": 1896,
      "Ġà¦ıà¦ĩà¦¡": 1897,
      "à¦ĸà¦°à¦Ĺ": 1898,
      "à¦Ĺà¦°à¦£": 1899,
      "Ġà¦ļà¦®à¦¤": 1900,
      "à¦§à¦®": 1901,
      "Ġà¦ĵà¦²": 1902,
      "Ġà¦ľà¦¨à¦ª": 1903,
      "à¦¿à¦Ĥà¥¤": 1904,
      "à¦ĵà¦Ł": 1905,
      "Ġà¦¡à¦ľ": 1906,
      "Ġà¦¸à¦®à¦¬à¦¯": 1907,
      "Ġà¦Ĩà¦°à¦Ń": 1908,
      "Ġà¦ĩà¦¸à¦²": 1909,
      "Ġà¦¬à¦²à¦°": 1910,
      "Ġà¦¸à¦¹à¦ª": 1911,
      "à¦ĺà¦¯": 1912,
      "à¦ħà¦¶": 1913,
      "à¦²à¦ķà¦ª": 1914,
      "à¦ıà¦®à¦¨": 1915,
      "à¦Ĩà¦Łà¦Ł": 1916,
      "à¦¨à¦Ĺà¦°": 1917,
      "à¦īà¦Łà¦°": 1918,
      "à¦ªà¦¨à¦ķ": 1919,
      "Ġà¦ľà¦®à¦ľà¦®": 1920,
      "à¦¨à¦¬à¦ľ": 1921,
      "Ġ25": 1922,
      "Ġà¦ĩà¦¨à¦ľ": 1923,
      "à¦īà¦¬à¦ĵà¦¯": 1924,
      "à¦Ĩà¦®à¦Ĺ": 1925,
      "à¦¶à¦°à¦·": 1926,
      "Ġ49": 1927,
      "à¦¡à¦²à¦ķà¦¸": 1928,
      "à¦°à¦¥à¦®à¦¬": 1929,
      "50": 1930,
      "Ġà¦Ķà¦·à¦§": 1931,
      "à§ĩ:": 1932,
      "à§ĩ?": 1933,
      "à¦¿'": 1934,
      "à¦ķà¦£": 1935,
      "à¦ķà¦¬à¦²": 1936,
      "à¦¨à¦¤à¦²": 1937,
      "à¦Łà¦°à¦ķ": 1938,
      "à¦²à¦¹à¦°": 1939,
      "à¦¼!": 1940,
      "Ġà¦ªà¦Ĺ": 1941,
      "Ġà¦¬à¦ªà¦¨": 1942,
      "à¦ľà¦ĵà¦¯": 1943,
      "à¦¤à¦ķà¦¡": 1944,
      "à¦¸à¦ķà¦²": 1945,
      "à¦ľà¦¨à¦ķà¦Ń": 1946,
      "à¦®à¦¹à¦°": 1947,
      "à¦®à¦ĺà¦Ł": 1948,
      "à¦ļà¦ª": 1949,
      "à¦ļà¦²à¦¨": 1950,
      "à¦ļà¦ķà¦²": 1951,
      "à¦¶à¦ĩ": 1952,
      "à¦¹à¦ª": 1953,
      "Ġà¦²à¦¸": 1954,
      "Ġà¦ªà¦°à¦¸": 1955,
      "à¦ĩà¦¶": 1956,
      "Ġà¦¹à¦ĩà¦Ľ": 1957,
      "Ġà¦ıà¦¸à¦ª": 1958,
      "à¦ĸà¦¬à¦°": 1959,
      "Ġà¦°à¦ĵà¦¨": 1960,
      "à¦Ĺà¦°à¦¦": 1961,
      "à¦Ĺà¦Ĩà¦īà¦Ł": 1962,
      "Ġà¦ļà¦Ľ": 1963,
      "Ġà¦§à¦¸": 1964,
      "Ġà¦ľà¦¨à¦Ĺà¦£": 1965,
      "à¦ĵà¦¸": 1966,
      "à¦ĵà¦®": 1967,
      "Ġà¦¡à¦Ļ": 1968,
      "Ġà¦¸à¦¹à¦¯": 1969,
      "à¦¬à¦°à¦ª": 1970,
      "à¦¬à¦°à¦£": 1971,
      "à¦²à¦¨à¦ķ": 1972,
      "à¦ĩà¦ľà¦¨à¦ķ": 1973,
      "à¦ĩà¦Łà¦¸": 1974,
      "à¦ĩà¦Łà¦Ĺ": 1975,
      "à¦Ĩà¦Ľ": 1976,
      "à¦Ĩà¦ĩ": 1977,
      "à¦Ĩà¦Ļ": 1978,
      "Ġà¦īà¦ªà¦²à¦¬": 1979,
      "Ġà¦Ĩà¦²à¦ªà¦¨": 1980,
      "à¦ĩà¦¡à¦¬": 1981,
      "à¦ķà¦¦à¦®": 1982,
      "à¦ĩà¦ªà¦®": 1983,
      "à¦ķà¦¨à¦«": 1984,
      "Ġà¦¶à¦ªà¦¥": 1985,
      "Ġà¦Ĩà¦¨à¦®à¦¨": 1986,
      "Ġ33": 1987,
      "à¦Ĺà¦¤à¦Ń": 1988,
      "Ġ14": 1989,
      "Ġà¦ªà¦¦à¦ļ": 1990,
      "Ġà¦ªà¦¶à¦®à¦¯": 1991,
      "Ġà¦Ĺà¦£à¦¨": 1992,
      "Ġà¦Ĭà¦°": 1993,
      "12": 1994,
      "20": 1995,
      "2008": 1996,
      "à¦Ī": 1997,
      "à§¯": 1998,
      "à¦¾à§į": 1999,
      "à¦ķà¦ľ": 2000,
      "à¦¨à¦·": 2001,
      "à¦¨à¦ĸ": 2002,
      "à¦²à¦ĸ": 2003,
      "à¦¯à¦Ĺà¦¤": 2004,
      "à¦Ľà¦¤à¦²": 2005,
      "Ġà¦ıà¦ķà¦²": 2006,
      "Ġà¦ıà¦ķà¦¹": 2007,
      "Ġà¦ªà¦¬": 2008,
      "Ġà¦¬à¦ĩà¦Ł": 2009,
      "Ġà¦¬à¦Łà¦Ĺ": 2010,
      "Ġà¦ķà¦ĸà¦¨": 2011,
      "à¦¤à¦Ĺà¦¤": 2012,
      "à¦¬à¦Ĺ": 2013,
      "à¦¬à¦ī": 2014,
      "à¦¡à¦¦": 2015,
      "à¦®à¦Ń": 2016,
      "à¦®à¦°à¦ķ": 2017,
      "à¦®à¦¤à¦ķ": 2018,
      "à¦ļà¦¤à¦°": 2019,
      "à¦ļà¦ĵà¦¡": 2020,
      "à¦¹à¦®": 2021,
      "Ġà¦ªà¦°à¦Ł": 2022,
      "Ġà¦ªà¦°à¦ªà¦°": 2023,
      "à¦ĩà¦¦": 2024,
      "à¦ĩà¦¤à¦²": 2025,
      "Ġà¦¨à¦¨": 2026,
      "Ġà¦¨à¦·": 2027,
      "Ġà¦ķà¦°à¦¸": 2028,
      "à¦ĸà¦®à¦¨": 2029,
      "Ġà¦Ľà¦²": 2030,
      "Ġà¦Ľà¦Ľ": 2031,
      "à¦Ĺà¦²à¦®": 2032,
      "Ġà¦Ĺà¦£à¦ķ": 2033,
      "Ġà¦ĸà¦¸à¦¡": 2034,
      "Ġà¦Łà¦Ł": 2035,
      "Ġà¦Łà¦²à¦®à¦²": 2036,
      "à¦§à¦ķà¦°": 2037,
      "à¦Ńà¦¨": 2038,
      "Ġà¦ĺà¦°à¦Ł": 2039,
      "à¦īà¦¥": 2040,
      "à¦īà¦ªà¦¤": 2041,
      "à¦īà¦¡à¦¸": 2042,
      "à¦īà¦Ńà¦¯": 2043,
      "à¦¬à¦²à¦¤": 2044,
      "à§Īà¦¾": 2045,
      "Ġà¦Ŀà¦²à¦®à¦²": 2046,
      "à¦Ŀà¦¤": 2047,
      "Ġà¦ĩà¦°": 2048,
      "Ġà¦ĩà¦¨à¦ķ": 2049,
      "Ġà¦ľà¦²à¦ķ": 2050,
      "à¦²à¦ķà¦§": 2051,
      "à¦ĩà¦Łà¦Ł": 2052,
      "à¦ıà¦¡": 2053,
      "à¦ıà¦¨à¦ľ": 2054,
      "à¦¯à¦¬à¦¦": 2055,
      "à¦Ĩà¦ļ": 2056,
      "à¦Ĩà¦¸à¦¬": 2057,
      "à¦Ĩà¦¨à¦¨": 2058,
      "Ġà¦Ĩà¦ķà¦Ľ": 2059,
      "à¦¬à¦¤à¦¶": 2060,
      "Ġà¦¬à¦°à¦ĩ": 2061,
      "à¦Ĺà¦²à¦Ł": 2062,
      "à¦Łà¦¸à¦®": 2063,
      "Ġà¦ħà¦ªà¦°à¦Ł": 2064,
      "Ġà¦¦à¦®à¦ķà¦²": 2065,
      "à¦·à¦ķà¦ķ": 2066,
      "à¦¬à¦¸à¦¨": 2067,
      "à¦Ľà¦ªà¦ķ": 2068,
      "à¦ľà¦²à¦¯": 2069,
      "à¦ħà¦²à¦Ļ": 2070,
      "Ġà¦Ĩà¦īà¦Łà¦ķ": 2071,
      "à¦¦à¦®à¦ķà¦²": 2072,
      "Ġà¦ħà¦¬à¦¹": 2073,
      "à¦®à¦ķà¦Ń": 2074,
      "à¦¹à¦ķà¦ĵà¦¯": 2075,
      "à¦ıà¦®à¦ı": 2076,
      "à¦¸à¦«à¦°à¦®": 2077,
      "Ġà¦ıà¦¨à¦ĵà¦¯": 2078,
      "Ġà¦Ĩà¦¤à¦Ļ": 2079,
      "Ġà¦ħà¦²à¦¸à¦Ń": 2080,
      "Ġà¦Ĩà¦ĩà¦¶": 2081,
      "Ġà¦Ĳà¦ķ": 2082,
      "à¦Ĺà¦²à¦®à¦¯": 2083,
      "Ġà¦Ĺà¦£à¦ķà¦¬à¦°": 2084,
      "15": 2085,
      "25": 2086,
      "à§ĩà¦Ĥ": 2087,
      "à¦°à¦ªà¦°": 2088,
      "à¦ķà¦¥": 2089,
      "à¦ķà¦ĵ": 2090,
      "à¦¨à¦«": 2091,
      "à¦¨à¦ªà¦¥": 2092,
      "à¦Łà¦Ĩà¦ª": 2093,
      "à¦¯à¦ļ": 2094,
      "à¦¯à¦¹": 2095,
      "à¦¼;": 2096,
      "Ġà¦ıà¦ķà¦¦à¦®": 2097,
      "Ġà¦¬à¦¦à¦²": 2098,
      "Ġà¦ķà¦¸à¦ª": 2099,
      "à¦¤à¦ĺà¦¡": 2100,
      "Ġà¦®à¦ķ": 2101,
      "Ġà¦®à¦Łà¦°à¦¸": 2102,
      "Ġà¦¸à¦ļ": 2103,
      "Ġà¦¸à¦ĩ": 2104,
      "Ġà¦¸à¦«à¦°": 2105,
      "à¦®à¦¬à¦¨": 2106,
      "à¦®à¦§à¦¨": 2107,
      "à¦ļà¦«": 2108,
      "à¦ļà¦°à¦®": 2109,
      "à¦ļà¦²à¦®": 2110,
      "à¦ªà¦¦à¦ķ": 2111,
      "à¦¶à¦ķà¦ķ": 2112,
      "Ġà¦²à¦ľ": 2113,
      "Ġà¦ıà¦Ń": 2114,
      "à¦ĸà¦¯": 2115,
      "à¦ĸà¦ļ": 2116,
      "Ġà¦°à¦ľ": 2117,
      "Ġà¦ħà¦®": 2118,
      "Ġà¦īà¦Łà¦ķ": 2119,
      "à¦Ļà¦ļ": 2120,
      "à¦Ńà¦Ļ": 2121,
      "Ġà¦¥à¦®à¦ķ": 2122,
      "à¦īà¦«": 2123,
      "à¦īà¦Ń": 2124,
      "à¦īà¦Łà¦¬": 2125,
      "à¦īà¦¦à¦¯": 2126,
      "Ġà¦ĵà¦ľ": 2127,
      "à¦¬à¦²à¦ľ": 2128,
      "à¦¬à¦²à¦Ń": 2129,
      "à¦¦à¦²à¦¬": 2130,
      "à¦Ŀà¦°à¦¨": 2131,
      "à¦¨à¦ľà¦¨à¦ĩ": 2132,
      "à¦°à¦¸à¦°": 2133,
      "à¦¬à¦°à¦¯": 2134,
      "à¦ħà¦¡": 2135,
      "à¦²à¦¨à¦ª": 2136,
      "à¦¸à¦¬à¦¹": 2137,
      "à¦¸à¦¬à¦Ĺ": 2138,
      "à¦¸à¦°à¦ķ": 2139,
      "à¦¸à¦°à¦ŀ": 2140,
      "à¦¤à¦°à¦¨": 2141,
      "à¦ıà¦ĸà¦¨": 2142,
      "à¦ıà¦¸à¦¬": 2143,
      "à¦ıà¦®à¦¡": 2144,
      "à¦ıà¦®à¦¸": 2145,
      "à¦Ĩà¦ľ": 2146,
      "à¦Ĩà¦²à¦®": 2147,
      "Ġà¦Ĩà¦ķà¦¶": 2148,
      "Ġà¦īà¦ªà¦¨": 2149,
      "à¦ĩà¦¡à¦ķ": 2150,
      "à¦ĩà¦¡à¦¶": 2151,
      "à¦¬à¦¤à¦¨": 2152,
      "Ġà¦¬à¦°à¦¯": 2153,
      "à¦¸à¦®à¦¦": 2154,
      "à¦°à¦ľà¦¨à¦ķ": 2155,
      "à¦¹à¦²à¦ĵà¦¯": 2156,
      "Ġà¦ķà¦®à¦«": 2157,
      "à¦Ĺà¦¨à¦ķ": 2158,
      "Ġà¦ħà¦¸à¦¨": 2159,
      "Ġà¦ķà¦¨à¦ķ": 2160,
      "à¦ıà¦ĩà¦ļ": 2161,
      "à¦¨à¦¬à¦¬à¦§": 2162,
      "Ġ23": 2163,
      "à¦§à¦¨à¦¸à¦®": 2164,
      "Ġ16": 2165,
      "Ġ18": 2166,
      "Ġà¦ĺà¦¨à¦ĺà¦Ł": 2167,
      "à¦°à¦§à¦°": 2168,
      "Ġ44": 2169,
      "Ġà¦¨à¦ĸà¦°": 2170,
      "010": 2171,
      "à¦ªà¦¨à¦¸à¦°à¦¡": 2172,
      "à¦ıà¦®à¦¡à¦¬": 2173,
      "16": 2174,
      "23": 2175,
      "44": 2176,
      "55": 2177,
      "60": 2178,
      "Ġ&": 2179,
      "à¦Ķà¦·à¦§": 2180,
      "à¦Ķà¦ªà¦¨": 2181,
      "Ġà¦Ķà¦ªà¦¨": 2182,
      "à§ĩ'": 2183,
      "à¦ķà¦¸à¦¨": 2184,
      "à¦¨à¦¨à¦ľà¦¨": 2185,
      "à¦¨à¦ķà¦²": 2186,
      "à¦¨à¦¸à¦¨": 2187,
      "à¦¨à¦®à¦ľ": 2188,
      "à¦Łà¦°à¦Ł": 2189,
      "à¦²à¦¬à¦ķ": 2190,
      "à¦¼)": 2191,
      "à§ģ:": 2192,
      "Ġà¦ªà¦¸": 2193,
      "Ġà¦¬à¦£": 2194,
      "Ġà¦¬à¦ķà¦Ľ": 2195,
      "à¦ľà¦¡": 2196,
      "à¦ľà¦ĺ": 2197,
      "à¦¸à¦¶à¦¸": 2198,
      "Ġà¦¦à¦ĸ": 2199,
      "à¦¼à§ĩ;": 2200,
      "Ġà¦®à¦Ļ": 2201,
      "Ġà¦®à¦Ŀ": 2202,
      "Ġà¦®à¦°à¦¸": 2203,
      "à¦ľà¦¨à¦¸": 2204,
      "à¦ľà¦¨à¦¸à¦Ń": 2205,
      "à¦¡à¦ıà¦®": 2206,
      "Ġà¦¸à¦¦à¦°": 2207,
      "Ġà¦¸à¦«à¦²": 2208,
      "à¦®à¦®": 2209,
      "à¦®à¦Ļ": 2210,
      "à¦®à¦®à¦¯": 2211,
      "à¦ıà¦ķà¦ķ": 2212,
      "à¦ıà¦ķà¦¤": 2213,
      "à¦ıà¦ķà¦¦": 2214,
      "à¦ıà¦ķà¦¹": 2215,
      "à¦¦à¦ķà¦°": 2216,
      "à¦¦à¦ķà¦¦": 2217,
      "à¦ļà¦«à¦°": 2218,
      "à¦ļà¦¤à¦²": 2219,
      "à¦ªà¦Ń": 2220,
      "Ġà¦Ĩà¦īà¦Łà¦¬": 2221,
      "à¦¶à¦Ľ": 2222,
      "à¦¶à¦Ŀ": 2223,
      "à¦¹à¦¯": 2224,
      "à¦·à¦¶": 2225,
      "à¦·à¦£à¦ķ": 2226,
      "Ġà¦ªà¦°à¦¹": 2227,
      "à¦ĩà¦Ļ": 2228,
      "à¦ĩà¦īà¦¡": 2229,
      "Ġà¦¨à¦Ń": 2230,
      "Ġà¦ķà¦°à¦Ĺ": 2231,
      "Ġà¦¹à¦ª": 2232,
      "Ġà¦ıà¦ľ": 2233,
      "Ġà¦ıà¦®à¦¬": 2234,
      "Ġà¦ıà¦ıà¦¨": 2235,
      "Ġà¦¶à¦¨": 2236,
      "à¦ĸà¦¬": 2237,
      "Ġà¦°à¦¹à¦¸": 2238,
      "à¦¼à¦¾à¦Ĥ": 2239,
      "Ġà¦Ľà¦°": 2240,
      "Ġà¦Ľà¦¤": 2241,
      "à¦Ĺà¦²à¦Ľ": 2242,
      "à¦¥à¦ª": 2243,
      "à¦¥à¦²à¦¨": 2244,
      "Ġà¦īà¦ĩà¦ķ": 2245,
      "Ġà¦īà¦ĩà¦ľ": 2246,
      "Ġà¦¬à¦¸à¦Ľ": 2247,
      "à¦§à¦¸": 2248,
      "Ġà¦«à¦ķ": 2249,
      "à¦£à¦Ł": 2250,
      "à¦łà¦¦": 2251,
      "Ġà¦ĺà¦Łà¦¤": 2252,
      "à¦īà¦Łà¦¸": 2253,
      "à¦īà¦ªà¦ķ": 2254,
      "à¦īà¦ªà¦¯": 2255,
      "à¦®à¦¨à¦Ł": 2256,
      "à¦®à¦¨à¦¸": 2257,
      "Ġà¦ĵà¦ķ": 2258,
      "Ġà¦ĵà¦¹": 2259,
      "à¦¬à¦²à¦Ł": 2260,
      "à¦¬à¦²à¦¸": 2261,
      "à¦ĵà¦¹": 2262,
      "à¦ŀà¦¤": 2263,
      "à¦Ŀà¦¦": 2264,
      "à¦Ŀà¦¨à¦¦": 2265,
      "Ġà¦ĩà¦Ĺà¦²": 2266,
      "Ġà¦ĩà¦ķà¦¬": 2267,
      "à¦īà¦¨à¦¹": 2268,
      "Ġà¦ľà¦²à¦ľ": 2269,
      "à¦°à¦¤à¦ļ": 2270,
      "à¦ķà¦°à¦ķ": 2271,
      "à¦²à¦¨à¦®": 2272,
      "à¦°à¦ªà¦¤": 2273,
      "à¦¸à¦°à¦·": 2274,
      "à¦¶à¦¨à¦¬": 2275,
      "à¦¤à¦°à¦Ł": 2276,
      "à¦ĩà¦Łà¦Ń": 2277,
      "à¦ıà¦¤": 2278,
      "à¦ıà¦¸à¦ķ": 2279,
      "à¦Ĩà¦¹à¦¤": 2280,
      "à¦Ĩà¦¤à¦¶à¦¬": 2281,
      "Ġà¦ļà¦²à¦ļ": 2282,
      "à¦¨à¦Łà¦¨": 2283,
      "Ġà¦Ĩà¦²à¦ª": 2284,
      "Ġà¦Ńà¦¬à¦¨à¦Ł": 2285,
      "à¦Ĺà¦²à¦«": 2286,
      "à¦¸à¦®à¦¤à¦²": 2287,
      "Ġà¦®à¦¨à¦¸": 2288,
      "Ġà¦¬à¦ĩà¦Ĺ": 2289,
      "à¦Ĺà¦ľà¦Ĺ": 2290,
      "à¦ĩà¦¸à¦Ł": 2291,
      "à¦¶à¦²à¦Ĺ": 2292,
      "à¦ĩà¦ªà¦¯": 2293,
      "à¦°à¦Ĺà¦¤": 2294,
      "à¦ªà¦¸à¦¨": 2295,
      "à¦¯à¦°à¦¶": 2296,
      "Ġà¦Ĩà¦¬à¦Ĺ": 2297,
      "à¦°à¦ļà¦¨": 2298,
      "à¦°à¦¹à¦ķ": 2299,
      "à¦Łà¦¤à¦ĩ": 2300,
      "Ġ2008": 2301,
      "Ġà¦Ĩà¦¶à¦ª": 2302,
      "à¦ķà¦¸à¦¹": 2303,
      "Ġà¦¨à¦¬à¦¬": 2304,
      "Ġà¦¨à¦¬à¦¬à¦°": 2305,
      "Ġ17": 2306,
      "Ġ19": 2307,
      "à¦īà¦°à¦¡": 2308,
      "Ġà¦ªà¦¦à¦¯": 2309,
      "à¦°à¦ħà¦²à¦Ĺ": 2310,
      "à¦ıà¦¸à¦ıà¦²": 2311,
      "à¦ĩà¦īà¦ıà¦¸": 2312,
      "Ġà¦ĩà¦īà¦ıà¦¸": 2313,
      "à¦Ŀà¦ķà¦Ŀà¦ķ": 2314,
      "Ġ90": 2315,
      "Ġà¦ıà¦®à¦ıà¦®à¦ı": 2316,
      "Ġà¦¸à¦°à¦²à¦°": 2317,
      "à¦ıà¦¸à¦ıà¦²à¦Ĩà¦°": 2318,
      "14": 2319,
      "24": 2320,
      "30": 2321,
      "40": 2322,
      "57": 2323,
      "70": 2324,
      "96": 2325,
      "Ġ;": 2326,
      "à¦°à¦ĸà¦¨": 2327,
      "à¦°à¦ŀ": 2328,
      "à¦°à¦ĺ": 2329,
      "à¦°à¦ħ": 2330,
      "à¦¿;": 2331,
      "à¦ķà¦ĩ": 2332,
      "à¦ķà¦Ļ": 2333,
      "à¦ķà¦ķà¦°": 2334,
      "à¦ķà¦²à¦®": 2335,
      "à¦¨à¦ķà¦ķ": 2336,
      "à¦¨à¦¤à¦®": 2337,
      "à¦¨à¦¡à¦Ĺ": 2338,
      "à¦²à¦£": 2339,
      "à¦¯à¦¬à¦°": 2340,
      "Ġà¦ıà¦ķà¦®à¦¨": 2341,
      "Ġà¦¬à¦¦": 2342,
      "Ġà¦¬à¦Ļ": 2343,
      "à¦ľà¦°à¦¦": 2344,
      "Ġà¦ķà¦¸à¦®à¦¸": 2345,
      "à¦¤à¦¯": 2346,
      "Ġà¦¦à¦ĩ": 2347,
      "Ġà¦¦à¦«": 2348,
      "à¦¼à§ĩ)": 2349,
      "Ġà¦®à¦²à¦¤": 2350,
      "à¦ľà¦¨à¦°": 2351,
      "à¦ľà¦¨à¦¦": 2352,
      "à¦¡à¦§": 2353,
      "à¦¡à¦¬à¦ķ": 2354,
      "à¦®à¦ĩ": 2355,
      "à¦¦à¦ª": 2356,
      "à¦¦à¦ĵà¦¯": 2357,
      "à¦ªà¦Ļ": 2358,
      "Ġà¦Ĩà¦®à¦¨": 2359,
      "Ġà¦Ĩà¦®à¦²": 2360,
      "Ġà¦Ĩà¦ĩà¦Ń": 2361,
      "Ġà¦Ĩà¦ĩà¦ĵà¦¯": 2362,
      "à¦¶à¦Ļ": 2363,
      "à¦¶à¦Ń": 2364,
      "à§Ģ)": 2365,
      "Ġà¦ªà¦°à¦ĩ": 2366,
      "à¦ĩà¦§": 2367,
      "à¦ĩà¦²à¦®": 2368,
      "Ġà¦¤à¦¹à¦¬": 2369,
      "Ġà¦¨à¦ľà¦°à¦¦": 2370,
      "Ġà¦¶à¦²": 2371,
      "Ġà¦ľà¦°à¦¦": 2372,
      "Ġà¦ľà¦Łà¦²": 2373,
      "à¦ıà¦ķà¦ľà¦¨à¦ķ": 2374,
      "à¦¥à¦¡": 2375,
      "Ġà¦ĸà¦ĩ": 2376,
      "Ġà¦ħà¦®à¦²": 2377,
      "Ġà¦ħà¦ĩà¦ª": 2378,
      "Ġà¦ħà¦®à¦¸": 2379,
      "à¦«à¦ıà¦²": 2380,
      "à¦ªà¦°à¦¨": 2381,
      "Ġà¦«à¦¨": 2382,
      "Ġà¦«à¦²à¦¨": 2383,
      "à¦Ļà¦¤": 2384,
      "à¦£à¦¬": 2385,
      "à¦łà¦Ł": 2386,
      "Ġà¦§à¦°à¦²": 2387,
      "Ġà¦§à¦°à¦ľ": 2388,
      "Ġà¦ĺà¦¨à¦¤": 2389,
      "Ġà¦¥à¦°": 2390,
      "à¦īà¦°à¦¨": 2391,
      "à¦īà¦²à¦Ļ": 2392,
      "à¦īà¦ªà¦¬": 2393,
      "Ġà¦ĵà¦®": 2394,
      "Ġà¦ĵà¦ķà¦²": 2395,
      "à¦ŀà¦¦": 2396,
      "à¦¦à¦²à¦Ł": 2397,
      "Ġà¦¸à¦¬à¦¸à¦®à¦¯": 2398,
      "Ġà¦ĩà¦«à¦¤": 2399,
      "Ġà¦¬à¦²à¦¯": 2400,
      "à¦īà¦¨à¦¦": 2401,
      "à¦°à¦®à¦ľ": 2402,
      "à¦°à¦®à¦§": 2403,
      "à¦°à¦¸à¦¨": 2404,
      "Ġà¦¹à¦²à¦°": 2405,
      "Ġà¦¹à¦²à¦¦": 2406,
      "à¦ĺà¦ķ": 2407,
      "à¦ĺà¦¹": 2408,
      "à¦ĺà¦°à¦Ł": 2409,
      "à¦ķà¦°à¦¶": 2410,
      "à¦ĩà¦¨à¦¯": 2411,
      "à¦°à¦ªà¦¸": 2412,
      "à¦¹à¦°à¦£": 2413,
      "à¦¶à¦¨à¦Ĺ": 2414,
      "à¦¥à¦°à¦¯": 2415,
      "à¦ĩà¦Łà¦ĵà¦¯": 2416,
      "à¦ıà¦ľà¦¨": 2417,
      "à¦ıà¦«à¦ıà¦²": 2418,
      "à¦Ĩà¦¸": 2419,
      "à¦Ĩà¦ĩà¦°": 2420,
      "à¦Ĩà¦ķà¦°": 2421,
      "Ġà¦Ĩà¦²à¦°": 2422,
      "à¦ĩà¦¡à¦Ł": 2423,
      "à¦Ĺà¦²à¦¦": 2424,
      "à¦ĩà¦²à¦¬à¦ķ": 2425,
      "à¦¸à¦®à¦°": 2426,
      "Ġà¦¶à¦°à¦·": 2427,
      "Ġà¦¶à¦°à¦¬à¦¤": 2428,
      "Ġà¦ªà¦¥à¦¶": 2429,
      "Ġà¦ªà¦¥à¦ļà¦²": 2430,
      "Ġà¦®à¦¨à¦¯": 2431,
      "Ġà¦Łà¦ªà¦ķ": 2432,
      "à¦īà¦Łà¦¦": 2433,
      "à¦¹à¦²à¦¦": 2434,
      "à¦°à¦£à¦¤": 2435,
      "à¦¤à¦²à¦Ĺ": 2436,
      "Ġà¦ķà¦®à¦¬à¦¯": 2437,
      "Ġà¦ķà¦®à¦ªà¦ķ": 2438,
      "à¦ķà¦ªà¦¯": 2439,
      "à¦īà¦ľà¦ķ": 2440,
      "Ġà¦¬à¦ķà¦¬à¦ķ": 2441,
      "Ġà¦Ĩà¦ĩà¦¸à¦¡": 2442,
      "à¦¡à¦¸à¦¨": 2443,
      "à¦ªà¦¥à¦¶": 2444,
      "à¦°à¦ļà¦²": 2445,
      "à¦¨à¦¬à¦¬à¦¨": 2446,
      "à¦ªà¦Łà¦ªà¦Ł": 2447,
      "Ġ22": 2448,
      "Ġ28": 2449,
      "à¦Łà¦²à¦¸": 2450,
      "Ġà§§à§¦": 2451,
      "Ġà¦īà§İà¦ªà¦¨": 2452,
      "à¦ľà¦®à¦ľà¦®": 2453,
      "Ġ100": 2454,
      "à§§à§¦": 2455,
      "à¦¨à¦¸à¦¹": 2456,
      "Ġ40": 2457,
      "Ġà¦Ĩà¦§à¦¬à¦¯": 2458,
      "Ġà¦ªà¦¦à¦¦à¦²": 2459,
      "à¦¸à¦«à¦Łà¦¬à¦²": 2460,
      "à¦Ńà¦¬à¦¨à¦Ł": 2461,
      "Ġ66": 2462,
      "Ġà¦Ĺà¦£à¦¹à¦¤": 2463,
      "Ġà¦ĩà¦īà¦ª": 2464,
      "Ġà¦ĩà¦īà¦ı": 2465,
      "Ġà¦Īà¦¶": 2466,
      "Ġà¦²à¦¬à¦£": 2467,
      "Ġà¦ľà¦¨à¦¸à¦Ń": 2468,
      "à¦Łà¦«à¦°à¦®": 2469,
      "à¦īà§İà¦°": 2470,
      "à¦°à¦¬à¦£à¦¤": 2471,
      "ĠâĢĺ": 2472,
      "Ġà¦ķà¦ĸà¦¨à¦ĵ": 2473,
      "à¦¦à¦²à¦¬à¦¦à¦²": 2474,
      "Ġà¦¸à¦«à¦²à¦Ń": 2475,
      "18": 2476,
      "201": 2477,
      "47": 2478,
      "49": 2479,
      "53": 2480,
      "?)": 2481,
      "Ġà§ĩ": 2482,
      "à¦Ĭ": 2483,
      "à¦¾!": 2484,
      "à¦¾'": 2485,
      "à¦¾âĢĻ": 2486,
      "à¦¾âĢĿ": 2487,
      "à§ĩà§ĩ": 2488,
      "à¦°à¦Ŀ": 2489,
      "à¦°à¦¢": 2490,
      "à¦°à¦¡à¦ĵà¦¯": 2491,
      "à¦¿!": 2492,
      "à¦¿)": 2493,
      "à¦¿?": 2494,
      "à¦¿à¦¾": 2495,
      "à¦¿à§ģ": 2496,
      "à¦ķà¦¬à¦°": 2497,
      "à¦¨à¦®à¦¨": 2498,
      "à¦¨à¦°à¦®": 2499,
      "à¦Łà¦ľà¦¨": 2500,
      "à¦Łà¦ķà¦Ł": 2501,
      "à¦²à¦¶": 2502,
      "à¦²à¦ĵ": 2503,
      "à¦²à¦Ĩà¦°": 2504,
      "à¦¯à§İ": 2505,
      "à¦¯à¦¡à¦®": 2506,
      "à¦¯à¦¤à¦¦": 2507,
      "à§ģà§ĥ": 2508,
      "à¦Ľà¦¸à¦¹": 2509,
      "à¦Ľà¦§à¦°": 2510,
      "Ġà¦ıà¦ķà¦¨": 2511,
      "Ġà¦ıà¦ķà¦¤à¦²": 2512,
      "Ġà¦¬à¦ļ": 2513,
      "Ġà¦¬à¦°à¦ķ": 2514,
      "Ġà¦¬à¦ķà¦ª": 2515,
      "Ġà¦ķà¦ĩà¦Ł": 2516,
      "à¦¬à¦īà¦Ł": 2517,
      "à¦¬à¦Łà¦ķ": 2518,
      "à¦¬à¦Łà¦Ĺ": 2519,
      "à¦¸à¦ķà¦¦": 2520,
      "à¦¸à¦¯à¦¨": 2521,
      "à¦¼à§ĩ-": 2522,
      "Ġà¦®à¦ĩà¦ķ": 2523,
      "Ġà¦®à¦°à¦Ĺ": 2524,
      "à¦ľà¦¨à¦ĩ": 2525,
      "à¦ľà¦¨à¦¬à¦¹": 2526,
      "à¦ľà¦¨à¦¬à¦¸à¦¤": 2527,
      "à¦¡à¦¬à¦²": 2528,
      "à¦ıà¦ķà¦®": 2529,
      "à¦ıà¦ķà¦°à¦ķà¦®": 2530,
      "à¦ļà¦¬à¦ķ": 2531,
      "à¦ªà¦¹": 2532,
      "à¦ªà¦ĵà¦¯": 2533,
      "Ġà¦Ĩà¦ĩà¦¨à¦¸": 2534,
      "Ġà¦Ĩà¦ĵà¦¬": 2535,
      "à¦¶à¦ľ": 2536,
      "à¦¹à¦Ń": 2537,
      "à¦¹à¦ķà¦¸": 2538,
      "Ġà¦²à¦°": 2539,
      "Ġà¦²à¦Ļ": 2540,
      "à¦·à¦¦à¦°": 2541,
      "à¦·à¦²à¦§": 2542,
      "à¦ĩà¦ĸ": 2543,
      "à¦ĩà¦¸à¦°": 2544,
      "à¦ĩà¦Ĺà¦²": 2545,
      "à¦ĩà¦ıà¦®à¦¸": 2546,
      "Ġà¦¨à¦ķ": 2547,
      "Ġà¦¨à¦Łà¦°": 2548,
      "Ġà¦ıà¦®à¦ª": 2549,
      "Ġà¦ıà¦°à¦®à¦§": 2550,
      "Ġà¦¶à¦ĸ": 2551,
      "à¦ĸà¦®à¦£": 2552,
      "Ġà¦°à¦¤": 2553,
      "Ġà¦°à¦®": 2554,
      "à¦¼à¦¾,": 2555,
      "Ġà¦Ľà¦ĩà¦¯": 2556,
      "à¦Ĺà¦°à¦ª": 2557,
      "Ġà¦ľà¦Ĺà¦°": 2558,
      "Ġà¦Ĺà¦¥": 2559,
      "à¦¥à¦¯": 2560,
      "à¦¥à¦ªà¦¤": 2561,
      "Ġà¦ĸà¦²": 2562,
      "Ġà¦ħà¦¥": 2563,
      "Ġà¦ħà¦¬à¦²": 2564,
      "Ġà¦ħà¦¬à¦ķ": 2565,
      "Ġà¦ħà¦°à¦£": 2566,
      "Ġà¦ħà¦ļà¦²": 2567,
      "Ġà¦ħà¦ľà¦¸": 2568,
      "Ġà¦ħà¦¦à¦²à¦¬à¦¦à¦²": 2569,
      "à¦«à¦¦": 2570,
      "à¦«à¦Łà¦ķ": 2571,
      "Ġà¦īà¦Ĺ": 2572,
      "Ġà¦īà¦ĩà¦²": 2573,
      "Ġà¦īà¦°à¦Ľ": 2574,
      "Ġà¦īà¦ĩà¦«": 2575,
      "à¦§à¦¨à¦Ĺ": 2576,
      "à¦£à¦¯": 2577,
      "à¦£à¦®": 2578,
      "à¦£à¦ªà¦¦à¦ķ": 2579,
      "à¦łà¦Ľ": 2580,
      "à¦łà¦ĸ": 2581,
      "à¦Ńà¦°à¦¨": 2582,
      "à¦Ńà¦¨à¦¸": 2583,
      "Ġà¦§à¦°à¦¸": 2584,
      "Ġà¦ĺà¦¸": 2585,
      "Ġà¦ĺà¦¨à¦ķ": 2586,
      "à¦īà¦ª": 2587,
      "à¦īà¦¤à¦°": 2588,
      "Ġà¦ĵà¦¦": 2589,
      "Ġà¦ľà¦¨à¦¶": 2590,
      "à¦ĩà¦ķà¦ķ": 2591,
      "à¦ĩà¦ķà¦¸": 2592,
      "à¦¬à¦²à¦ķ": 2593,
      "à¦ĵà¦¦": 2594,
      "à¦ĵà¦²à¦¸": 2595,
      "Ġà¦¡à¦°": 2596,
      "à¦ŀà¦°": 2597,
      "à¦ŀà¦ª": 2598,
      "à¦Ŀà¦¹": 2599,
      "Ġà¦ĩà¦¬": 2600,
      "Ġà¦¬à¦²à¦ª": 2601,
      "à¦īà¦¨à¦°": 2602,
      "à¦°à¦®à¦¬à¦°": 2603,
      "à¦ĺà¦®": 2604,
      "à¦ķà¦°à¦Ń": 2605,
      "à¦ĩà¦¨à¦ª": 2606,
      "à¦ħà¦Ł": 2607,
      "Ġà¦¦à¦²à¦Ĺà¦¤": 2608,
      "à¦ĩà¦ľà¦¨à¦ĩ": 2609,
      "à¦ªà¦¤à¦¨": 2610,
      "à¦¤à¦°à¦£à¦ķ": 2611,
      "à¦ıà¦Ń": 2612,
      "à¦Ĩà¦ĩà¦¨": 2613,
      "à¦Ĩà¦Łà¦²": 2614,
      "Ġà¦ļà¦²à¦¸": 2615,
      "Ġà¦īà¦ªà¦²à¦ķ": 2616,
      "Ġà¦Ĩà¦²à¦Ł": 2617,
      "à¦Ĺà¦²à¦ĺ": 2618,
      "à¦ĩà¦²à¦Ĺ": 2619,
      "Ġà¦ħà¦ªà¦²à¦ķ": 2620,
      "Ġà¦łà¦ķ": 2621,
      "Ġà§¯": 2622,
      "Ġà¦Łà¦ªà¦ĵà¦¯": 2623,
      "Ġà¦ıà¦²à¦«": 2624,
      "à¦¤à¦²à¦Ł": 2625,
      "Ġà¦ķà¦®à¦°": 2626,
      "à¦ĩà¦¸à¦ķà¦¨à¦¸": 2627,
      "Ġà¦ķà¦²à¦¸à¦Ł": 2628,
      "à¦īà¦ľà¦¬à¦¯": 2629,
      "Ġà¦Ĩà¦®à¦¡": 2630,
      "à¦ľà¦²à¦ªà¦¥": 2631,
      "à¦ĩà¦®à¦Ĩà¦īà¦Ł": 2632,
      "à¦¶à¦²à¦ĸ": 2633,
      "Ġà¦®à¦¤à¦¨": 2634,
      "à¦ķà¦¨à¦Ń": 2635,
      "à¦°à¦¨à¦¡": 2636,
      "Ġà¦Ĩà¦«à¦Ľ": 2637,
      "Ġà¦Ĩà¦«à¦Ĺ": 2638,
      "Ġà¦Ńà¦²à¦Ń": 2639,
      "Ġà¦ħà¦°à¦§": 2640,
      "Ġà¦Ŀà¦°à¦Ŀà¦°": 2641,
      "à¦¤à¦ķà¦£": 2642,
      "à¦¨à¦¬à¦¬": 2643,
      "à¦²à¦ļà¦¤": 2644,
      "à¦²à¦Łà¦¨": 2645,
      "Ġ24": 2646,
      "Ġ2010": 2647,
      "à¦Łà¦®à¦¸": 2648,
      "Ġ35": 2649,
      "Ġ36": 2650,
      "Ġ37": 2651,
      "à¦²à¦ªà¦Ĺ": 2652,
      "Ġ15": 2653,
      "Ġà¦ªà¦¨à¦ļ": 2654,
      "à¦¶à¦°à§İà¦ķ": 2655,
      "à¦²à¦¸à¦¹": 2656,
      "à§§à§¨": 2657,
      "à§§à§§": 2658,
      "Ġ58": 2659,
      "Ġ43": 2660,
      "à¦¯à¦Łà¦ķà¦ķ": 2661,
      "Ġà¦ķà¦²à¦®à¦¦": 2662,
      "Ġà¦ªà¦¶à¦®à¦ĵà¦¯": 2663,
      "Ġà¦īà¦ªà¦ķà¦£": 2664,
      "Ġ63": 2665,
      "Ġà¦ıà¦¨à¦ıà¦«à¦ıà¦²": 2666,
      "Ġà¦¡à¦Ĺà¦¹": 2667,
      "Ġ94": 2668,
      "Ġ70": 2669,
      "...": 2670,
      "à¦®à¦£à¦¬": 2671,
      "Ġà¦Ĩà¦¹à¦®": 2672,
      "1950": 2673,
      "Ġà¦Ĩà¦ĩà¦ķà¦¨": 2674,
      "Ġà¦ıà¦ĩà¦¡à¦¸": 2675,
      "Ġà¦¦à¦ĸà¦²à¦ķ": 2676,
      "Ġà¦¨à¦Łà¦°à¦¡": 2677,
      "à¦Ńà¦¨à¦¸à¦Ļ": 2678,
      "09": 2679,
      "21": 2680,
      "28": 2681,
      "32": 2682,
      "36": 2683,
      "52": 2684,
      "54": 2685,
      "95": 2686,
      "97": 2687,
      "99": 2688,
      "Ġ!": 2689,
      "Ġ\"": 2690,
      "Ġ0": 2691,
      "Ġà¦£": 2692,
      "à¦¾à¦ĥ": 2693,
      "à§ĩ.": 2694,
      "à§ĩà§į": 2695,
      "à§ĩà§ģ": 2696,
      "à¦°à¦¬à¦¨": 2697,
      "à¦¿.": 2698,
      "à¦¿à§Ģ": 2699,
      "à¦ķà¦ĸ": 2700,
      "à¦¨à¦ĩ": 2701,
      "à¦¨à¦ŀ": 2702,
      "à¦¨à¦¬à¦ķ": 2703,
      "à¦¨à¦ĵà¦²": 2704,
      "à¦Łà¦ªà¦°": 2705,
      "à¦Łà¦ĵ": 2706,
      "à¦Łà¦¡à¦²": 2707,
      "à¦Łà¦ĸà¦¡": 2708,
      "à¦Łà¦ĵà¦Ń": 2709,
      "à¦Łà¦īà¦¡": 2710,
      "à¦²à¦Łà¦ª": 2711,
      "à¦²à¦¸à¦®": 2712,
      "à¦²à¦ĺà¦°": 2713,
      "à¦¯à¦§": 2714,
      "à¦¯à¦¸à¦®": 2715,
      "à¦¯à¦¤à¦¬": 2716,
      "à¦¯à¦¤à¦®": 2717,
      "à§ģà§ģ": 2718,
      "à¦Ľà¦ĵ": 2719,
      "Ġà¦ıà¦ķà¦°": 2720,
      "Ġà¦ıà¦ķà¦Ŀ": 2721,
      "Ġà¦ªà¦ļ": 2722,
      "Ġà¦ªà¦Łà¦ķ": 2723,
      "à§ĭà§į": 2724,
      "Ġà¦¬à¦¬à¦ķ": 2725,
      "Ġà¦¬à¦ķà¦¤": 2726,
      "Ġà¦¬à¦Ĺà¦²": 2727,
      "Ġà¦¬à¦īà¦ķ": 2728,
      "à¦ľà¦Ń": 2729,
      "à¦ľà¦ķà¦°": 2730,
      "à¦ľà¦®à¦ķ": 2731,
      "Ġà¦ķà¦ľ": 2732,
      "Ġà¦ķà¦²à¦ķ": 2733,
      "Ġà¦ķà¦ĩà¦ľà¦¨": 2734,
      "à¦¤à¦§": 2735,
      "à¦¤à¦®à¦ŀ": 2736,
      "à¦¤à¦¤à¦®": 2737,
      "à¦¬à¦ľà¦¨": 2738,
      "à¦¬à¦£": 2739,
      "à¦¸à¦¬à¦ķ": 2740,
      "à¦¸à¦Ńà¦¬à¦¨": 2741,
      "Ġà¦¦à¦¨": 2742,
      "Ġà¦¦à¦¯": 2743,
      "Ġà¦¦à¦¤": 2744,
      "Ġà¦®à¦ł": 2745,
      "Ġà¦®à¦ªà¦¸": 2746,
      "à¦ľà¦¨à¦®": 2747,
      "à¦¡à¦ľ": 2748,
      "à¦¡à¦Ĩà¦īà¦Ł": 2749,
      "Ġà¦¸à¦ĸ": 2750,
      "Ġà¦¸à¦«à¦Ł": 2751,
      "à¦®à¦Ŀ": 2752,
      "à¦®à¦¬à¦°": 2753,
      "à¦®à¦ĺà¦°": 2754,
      "à¦®à§İà¦¸": 2755,
      "à¦®à¦Ńà¦°": 2756,
      "à¦ıà¦ķà¦¬": 2757,
      "à¦¦à¦ķà¦ķ": 2758,
      "à¦¦à¦¬à¦¦": 2759,
      "à¦ļà¦Ĺ": 2760,
      "à¦ļà¦ķà¦°": 2761,
      "à¦ļà¦²à¦ķ": 2762,
      "à¦ļà¦°à¦£": 2763,
      "à¦ªà¦«": 2764,
      "à¦ªà¦²à¦ķ": 2765,
      "à¦ªà¦ķà¦¦": 2766,
      "à¦ªà¦ªà¦¸": 2767,
      "à¦ªà¦ĩà¦¯": 2768,
      "à¦ªà¦²à¦ļ": 2769,
      "à¦ªà¦¶à¦Ł": 2770,
      "Ġà¦Ĩà¦ķà¦ľà¦¨": 2771,
      "Ġà¦Ĩà¦¸à¦°": 2772,
      "Ġà¦Ĩà¦ªà¦¤": 2773,
      "Ġà¦Ĩà¦ĩà¦®": 2774,
      "Ġà¦Ĩà¦ľà¦ķ": 2775,
      "Ġà¦Ĩà¦¹à¦°à¦£": 2776,
      "à¦¶à¦¤à¦°à¦Ļ": 2777,
      "à¦¹à¦ľ": 2778,
      "à¦¹à¦¦": 2779,
      "à¦¹à¦¸à¦ª": 2780,
      "à¦¹à¦ľà¦¨à¦ķ": 2781,
      "à¦¹à¦ľà¦¨à¦ķà¦Ń": 2782,
      "Ġà¦²à¦¹": 2783,
      "à§Ģ!": 2784,
      "Ġà¦Ĩà¦Ľà¦°": 2785,
      "à¦·à¦¬": 2786,
      "à¦·à¦Ń": 2787,
      "à¦·à¦°à¦¤": 2788,
      "à¦·à¦ķà¦¤": 2789,
      "à¦·à¦¸à¦¹": 2790,
      "Ġà¦ªà¦°à¦®": 2791,
      "à¦ĩà¦īà¦Ł": 2792,
      "à¦ĩà¦ĵà¦¨": 2793,
      "Ġà¦¨à¦ĩ": 2794,
      "Ġà¦¨à¦¨à¦¡": 2795,
      "Ġà¦ķà¦°à¦®à¦ļ": 2796,
      "Ġà¦¹à¦ł": 2797,
      "Ġà¦ıà¦ŀ": 2798,
      "Ġà¦ıà¦¡à¦ĵà¦¯": 2799,
      "Ġà¦ıà¦ľà¦ķà¦¨": 2800,
      "à¦ĸà¦¸": 2801,
      "à¦ĸà¦ª": 2802,
      "Ġà¦°à¦«": 2803,
      "Ġà¦°à¦ŀ": 2804,
      "Ġà¦°à¦ĩà¦²": 2805,
      "Ġà¦°à¦ļà¦¨": 2806,
      "Ġà¦Ľà¦ķ": 2807,
      "Ġà¦Ľà¦ĩ": 2808,
      "à¦¾à¦ģ-": 2809,
      "à¦Ĺà¦¹": 2810,
      "à¦Ĺà¦¥": 2811,
      "à¦Ĺà¦ŀ": 2812,
      "à¦Ĺà¦°à¦¤": 2813,
      "à¦Ĺà¦¤à¦®": 2814,
      "à¦Ĺà¦łà¦¨": 2815,
      "Ġà¦ľà¦¬à¦¸": 2816,
      "Ġà¦Ĺà¦Ĺà¦¨": 2817,
      "Ġà¦Ĺà¦¸à¦²": 2818,
      "Ġà¦ļà¦·": 2819,
      "Ġà¦ļà¦ªà¦²": 2820,
      "Ġà¦ĸà¦¦": 2821,
      "Ġà¦ĸà¦°à¦ķ": 2822,
      "Ġà¦Łà¦²": 2823,
      "Ġà¦Łà¦°à¦¨": 2824,
      "Ġà¦Łà¦¡à¦²": 2825,
      "Ġà¦ħà¦¯": 2826,
      "Ġà¦ħà¦Ŀ": 2827,
      "Ġà¦ħà¦¥à¦¬": 2828,
      "à¦«à¦Ĺ": 2829,
      "à¦«à¦ĩà¦²": 2830,
      "à¦«à¦¶à¦²": 2831,
      "Ġà¦īà¦¥": 2832,
      "Ġà¦īà¦Łà¦ª": 2833,
      "Ġà¦īà¦ĩà¦¸à¦ķà¦¨à¦¸": 2834,
      "à§ĩà¥¤,": 2835,
      "à¦§à¦ľ": 2836,
      "à¦§à¦¦": 2837,
      "à¦§à¦ļà¦¨": 2838,
      "Ġà¦Ńà¦¨": 2839,
      "à¦ªà¦°à¦ªà¦°": 2840,
      "Ġà¦«à¦²à¦®": 2841,
      "à¦¯à¦ķà¦°à¦Ń": 2842,
      "à¦Ńà¦ļ": 2843,
      "à¦Ńà¦°à¦¦": 2844,
      "à¦īà¦ĩà¦ķ": 2845,
      "à¦īà¦ĩà¦¡": 2846,
      "à¦īà¦ĩà¦²": 2847,
      "à¦īà§İà¦¸": 2848,
      "à§Ĥà¦ģ": 2849,
      "Ġà¦ĵà¦Łà¦®": 2850,
      "Ġà¦ľà¦¨à¦Ĺ": 2851,
      "à¦¿à¦Ĥ!": 2852,
      "à¦ĵà¦ª": 2853,
      "à¦ĵà¦ĩ": 2854,
      "à¦ĵà¦ªà¦°": 2855,
      "Ġà¦¡à¦¬": 2856,
      "Ġà¦Ŀà¦¨": 2857,
      "Ġà¦ĩà¦Ĺ": 2858,
      "Ġà¦ĩà¦«": 2859,
      "Ġà¦ĩà¦ıà¦®": 2860,
      "Ġà¦¸à¦¹à¦ļà¦°": 2861,
      "Ġà¦ľà¦²à¦¬": 2862,
      "Ġà¦ľà¦²à¦ļ": 2863,
      "à¦°à¦®à¦®à¦ľ": 2864,
      "à¦°à¦¸à¦¹": 2865,
      "à¦¬à¦°à¦¤": 2866,
      "Ġà¦¹à¦²à¦Ł": 2867,
      "à¦ĺà¦°à¦¬": 2868,
      "à¦ķà¦°à¦ķà¦®": 2869,
      "à¦ĩà¦¨à¦°": 2870,
      "à¦ĩà¦¨à¦¹": 2871,
      "à¦ĩà¦¨à¦«": 2872,
      "à¦ħà¦ľ": 2873,
      "à¦ħà¦®": 2874,
      "à¦ħà¦¬à¦°": 2875,
      "à¦ħà¦¬à¦¯": 2876,
      "à¦ħà¦ľà¦¸": 2877,
      "à¦²à¦ķà¦¬": 2878,
      "à¦¬à¦¨à¦ķ": 2879,
      "à¦ķà¦¤à¦°": 2880,
      "à¦¦à¦°à¦Ł": 2881,
      "à¦¸à¦°à¦¨": 2882,
      "Ġà¦īà¦łà¦¸": 2883,
      "à¦¤à¦°à¦¦": 2884,
      "à¦ĩà¦Łà¦ĩ": 2885,
      "à¦ıà¦Ļ": 2886,
      "à¦ıà¦¸à¦ª": 2887,
      "à¦ıà¦¨à¦ĵà¦¯": 2888,
      "à¦¯à¦¬à¦§": 2889,
      "à¦Ĩà¦¹": 2890,
      "à¦Ĩà¦¬à¦¹": 2891,
      "à¦Ĩà¦¶à¦ª": 2892,
      "à¦Ĩà¦ĩà¦ĵà¦¯": 2893,
      "Ġà¦Ĩà¦ķà¦¸": 2894,
      "à¦ĩà¦¡à¦°": 2895,
      "à¦ĩà¦¡à¦Ĺ": 2896,
      "Ġà¦¬à¦°à¦ĸ": 2897,
      "à¦Ĺà¦²à¦°": 2898,
      "à¦Ĺà¦²à¦Ĺ": 2899,
      "Ġà¦ĺà¦°à¦Ĺ": 2900,
      "à¦Łà¦¸à¦¹": 2901,
      "Ġà¦ªà¦¥à¦Ł": 2902,
      "Ġà¦ħà¦ªà¦°à¦ª": 2903,
      "Ġà¦®à¦¨à¦¨à¦¶": 2904,
      "Ġà¦Łà¦ªà¦¯": 2905,
      "à¦¹à¦²à¦ª": 2906,
      "à¦°à¦¬à¦Ł": 2907,
      "à¦·à¦ķà¦¦à¦¨": 2908,
      "à¦ĩà¦¸à¦²": 2909,
      "Ġà¦ķà¦²à¦Ł": 2910,
      "Ġà¦ķà¦²à¦°à¦¯": 2911,
      "Ġà¦°à¦ķà¦¸": 2912,
      "à¦·à¦°à¦Ĺ": 2913,
      "Ġà¦ħà¦¸à¦ļ": 2914,
      "Ġà¦ħà¦¸à¦Ļ": 2915,
      "à¦īà¦ľà¦®": 2916,
      "Ġà¦Ĩà¦®à¦¸": 2917,
      "Ġà¦Ĩà¦®à¦ª": 2918,
      "à¦Łà¦°à¦¨": 2919,
      "à¦Łà¦°à¦Ĺ": 2920,
      "à¦¯à¦®à¦Ĺ": 2921,
      "à¦¥à¦¨à¦ķ": 2922,
      "Ġà¦ķà¦¨à¦Ńà¦¯": 2923,
      "à¦¾à¦Ĥ-": 2924,
      "à¦°à¦Ĺà¦Ł": 2925,
      "Ġà¦ħà¦Ńà¦¯": 2926,
      "à¦®à¦°à¦¬à¦¨": 2927,
      "à¦¨à¦ķà¦¶": 2928,
      "Ġà¦Ĩà¦Ļà¦Ł": 2929,
      "à¦¨à¦¬à¦¬à¦°": 2930,
      "Ġà¦ħà¦Ĺà¦£": 2931,
      "Ġà¦®à¦°à¦®à¦¨": 2932,
      "à¦¡à¦²à¦Ĺ": 2933,
      "à¦¡à¦²à¦ķà¦Ĺ": 2934,
      "Ġ21": 2935,
      "Ġà¦·à¦¡": 2936,
      "à¦¯à¦ªà¦Ł": 2937,
      "Ġà¦ľà¦Ĺà¦¤": 2938,
      "Ġà¦ıà¦ĩà¦¦": 2939,
      "Ġà¦ıà¦ĩà¦ļ": 2940,
      "à¦ªà¦²à¦¸": 2941,
      "Ġà§©à§©": 2942,
      "à¦ļà¦Łà¦ķà¦¦": 2943,
      "Ġà§§à§«": 2944,
      "à¦²à¦¬à¦¹à¦¨": 2945,
      "Ġ39": 2946,
      "Ġà¦īà§İà¦ªà¦¤": 2947,
      "à¦ķà¦¬à¦°à¦¸": 2948,
      "à¦¨à¦¤à¦¤": 2949,
      "à¦¶à¦°à§İ": 2950,
      "à¦®à¦¸à¦ĵ": 2951,
      "Ġà¦¤à¦ĸà¦¨à¦ĵ": 2952,
      "à¦ľà¦¸à¦¹": 2953,
      "à¦ľà¦¸à¦Ń": 2954,
      "à¦°à¦¥à¦®à¦Ł": 2955,
      "à¦¨à¦ľà¦Łà¦ª": 2956,
      "à¦°à¦ĵà¦ª": 2957,
      "à§§à§«": 2958,
      "à§§à§¬": 2959,
      "Ġ51": 2960,
      "Ġ55": 2961,
      "Ġ56": 2962,
      "Ġ500": 2963,
      "Ġà¦¨à¦Ĺà¦°à¦¬": 2964,
      "Ġà¦Ĺà¦¨à¦ª": 2965,
      "à¦¸à¦¹à¦ķà¦°": 2966,
      "Ġ60": 2967,
      "Ġ67": 2968,
      "à¦ıà¦²à¦ı": 2969,
      "000": 2970,
      "Ġ93": 2971,
      "104": 2972,
      "Ġà¦Ĭà¦ľ": 2973,
      "Ġà¦ķà¦¦à¦®à¦«": 2974,
      "Ġ...": 2975,
      "à¦ıà¦ĩà¦ļà¦ıà¦²": 2976,
      "2011": 2977,
      "à¦Ĭà¦¡": 2978,
      "Ġà¦Ĺà¦Ĺà¦¨à¦ļ": 2979,
      "Ġà¦ĩà¦ıà¦®à¦Ł": 2980,
      "100": 2981,
      "200": 2982,
      "2010": 2983,
      "37": 2984,
      "46": 2985,
      "63": 2986,
      "75": 2987,
      "701": 2988,
      "80": 2989,
      "88": 2990,
      "Ġ+": 2991,
      "Ġ?": 2992,
      "Ġà§į": 2993,
      "ĭà¦¤": 2994,
      "à¦¾à§Ģ": 2995,
      "à¦°à¦ıà¦ķà¦Ł": 2996,
      "à¦°à¦²à¦ķ": 2997,
      "à¦°à¦°à¦ª": 2998,
      "à¦ķà¦ķà¦Ł": 2999,
      "à¦ķà¦²à¦ķ": 3000,
      "à¦ķà¦ĺà¦°": 3001,
      "à¦ķà¦ķà¦ª": 3002,
      "à¦ķà¦¸à¦ª": 3003,
      "à¦ķà¦ľà¦®": 3004,
      "à¦ķà¦ħà¦«": 3005,
      "à¦¨à¦§": 3006,
      "à¦¨à¦ķà¦°": 3007,
      "à¦¨à¦¸à¦®": 3008,
      "à¦¨à¦°à¦Ļ": 3009,
      "à¦¨à¦īà¦ķ": 3010,
      "à¦Łà¦¡": 3011,
      "à¦Łà¦²à¦ķ": 3012,
      "à¦Łà¦¸à¦¬": 3013,
      "à¦Łà¦²à¦ķà¦ķ": 3014,
      "à¦²à¦ľà¦¨": 3015,
      "à¦²à¦ĩ": 3016,
      "à¦²à¦®à¦¨": 3017,
      "à¦²à¦¬à¦°": 3018,
      "à¦²à¦¸à¦¬": 3019,
      "à¦²à¦¸à¦¨": 3020,
      "à¦²à¦ªà¦²": 3021,
      "à¦²à¦īà¦¡": 3022,
      "à¦¯à¦ĸ": 3023,
      "à¦¯à¦ªà¦¥": 3024,
      "à¦¯à¦°à¦ķà¦®": 3025,
      "à§ģ!": 3026,
      "à¦Ľà¦Ńà¦°": 3027,
      "Ġà¦ªà¦²à¦ķ": 3028,
      "Ġà¦ªà¦®à¦ª": 3029,
      "Ġà¦ªà¦Łà¦²": 3030,
      "à§ĭ)": 3031,
      "Ġà¦¬à¦¬": 3032,
      "Ġà¦¬à¦®": 3033,
      "Ġà¦¬à¦ķà¦Ł": 3034,
      "Ġà¦¬à¦¬à¦¸": 3035,
      "Ġà¦¬à¦¤à¦²": 3036,
      "Ġà¦¬à¦¬à¦¡": 3037,
      "à¦ľà¦ĸ": 3038,
      "à¦ľà¦§": 3039,
      "à¦ľà¦¬à¦¯": 3040,
      "à¦ľà¦¤à¦²": 3041,
      "à¦ľà¦ķà¦ķ": 3042,
      "à¦ľà¦¤à¦ķ": 3043,
      "à¦ľà¦°à¦¯": 3044,
      "à¦ľà¦¸à¦ª": 3045,
      "à¦ľà¦¸à¦°à¦ŀ": 3046,
      "Ġà¦ķà¦Ľ": 3047,
      "Ġà¦ķà¦ľà¦¨": 3048,
      "Ġà¦ķà¦®à¦¨": 3049,
      "à¦¤à¦¬à¦°": 3050,
      "à¦¤à¦¨à¦¬": 3051,
      "à¦¤à¦ķà¦°à¦£": 3052,
      "à¦¤à¦¹à¦¬": 3053,
      "à¦¬à¦ľ": 3054,
      "à¦¬à¦¶à¦ķ": 3055,
      "à¦¸à¦ıà¦ķ": 3056,
      "à¦¸à¦®à¦¨": 3057,
      "à¦¸à¦ĵ": 3058,
      "à¦¸à¦¬à¦¯": 3059,
      "à¦¸à¦¤à¦°": 3060,
      "à¦¸à¦¦à¦¸": 3061,
      "à¦¸à¦¹à¦ķ": 3062,
      "Ġà¦¦à¦ª": 3063,
      "à¦¼à§ĩ...": 3064,
      "Ġà¦®à¦¬": 3065,
      "Ġà¦®à¦®": 3066,
      "Ġà¦®à¦ĩà¦Ł": 3067,
      "Ġà¦®à¦°à¦ķ": 3068,
      "Ġà¦®à¦®à¦¤": 3069,
      "Ġà¦®à¦īà¦¸": 3070,
      "Ġà¦®à¦īà¦Ń": 3071,
      "à¦ľà¦¨à¦°à¦¸": 3072,
      "à¦¡à¦²à¦«": 3073,
      "à¦¡à¦Ĩà¦ª": 3074,
      "à¦¡à¦ķà¦Ń": 3075,
      "Ġà¦¸à¦¶": 3076,
      "Ġà¦¸à¦ķà¦°": 3077,
      "Ġà¦¸à¦¨à¦¦": 3078,
      "Ġà¦¸à¦°à¦Ľ": 3079,
      "Ġà¦¸à¦ªà¦¥": 3080,
      "Ġà¦¸à¦¦à¦¯": 3081,
      "à¦®à¦ĸ": 3082,
      "à¦®à¦ĵ": 3083,
      "à¦®à¦¬à¦ķ": 3084,
      "à¦®à¦°à¦¸": 3085,
      "à¦®à¦¹à¦²": 3086,
      "à¦®à¦¸à¦²": 3087,
      "à¦®à¦¸à¦¨": 3088,
      "à¦®à¦¸à¦®à¦°": 3089,
      "à¦ıà¦ķà¦ļ": 3090,
      "à¦ıà¦ķà¦ľà¦°": 3091,
      "à¦ıà¦ķà¦§à¦°à¦¨": 3092,
      "à¦¦à¦ĵ": 3093,
      "à¦¦à¦¶à¦Ł": 3094,
      "à¦ļà¦°à¦ķ": 3095,
      "à¦ļà¦°à¦Ł": 3096,
      "à¦ļà¦°à¦Ľ": 3097,
      "à¦ļà¦¨à¦Ĺ": 3098,
      "à¦ļà¦ªà¦¸": 3099,
      "à¦ļà¦®à§İà¦ķ": 3100,
      "à¦ļà¦Łà¦ªà¦Ł": 3101,
      "à¦ªà¦¨à¦Ł": 3102,
      "à¦ªà¦¬à¦¦": 3103,
      "à¦ªà¦ļà¦°": 3104,
      "Ġà¦Ĩà¦ĵà¦¯": 3105,
      "Ġà¦Ĩà¦ŀ": 3106,
      "Ġà¦Ĩà¦¬à¦¯": 3107,
      "Ġà¦Ĩà¦ķà¦¤": 3108,
      "Ġà¦Ĩà¦ªà¦¸": 3109,
      "Ġà¦Ĩà¦Łà¦²": 3110,
      "Ġà¦Ĩà¦ĩà¦¡à¦²": 3111,
      "à¦¶à¦£": 3112,
      "à¦¶à¦ĩà¦¯": 3113,
      "à¦¹à¦¸à¦ľ": 3114,
      "Ġà¦²à¦¬à¦¨": 3115,
      "Ġà¦²à¦²à¦¨": 3116,
      "à§Ģ;": 3117,
      "à¦Ĥà¦¿à¦Ĥ": 3118,
      "à¦·à¦ĩ": 3119,
      "à¦·à¦ķà¦Ł": 3120,
      "à¦·à¦°à¦£": 3121,
      "à¦·à¦¤à¦¬": 3122,
      "Ġà¦ªà¦°à¦°": 3123,
      "à¦ĩà¦¥": 3124,
      "à¦ĩà¦¦à¦²": 3125,
      "à¦ĩà¦¸à¦¬": 3126,
      "à¦ĩà¦ıà¦°": 3127,
      "Ġà¦¨à¦Ł": 3128,
      "Ġà¦¨à¦¬à¦¨": 3129,
      "Ġà¦¨à¦¨à¦¦": 3130,
      "Ġà¦¨à¦²à¦Ł": 3131,
      "Ġà¦¨à¦īà¦¦": 3132,
      "Ġà¦ıà¦ķà¦ľà¦¨à¦¬": 3133,
      "Ġà¦¹à¦¸à¦ª": 3134,
      "Ġà¦ıà¦Ľ": 3135,
      "Ġà¦ıà¦ļ": 3136,
      "Ġà¦ıà¦¹": 3137,
      "Ġà¦ıà¦¥": 3138,
      "Ġà¦ıà¦«": 3139,
      "Ġà¦ıà¦¸à¦¬": 3140,
      "Ġà¦ıà¦¨à¦¬": 3141,
      "Ġà¦ıà¦¨à¦°": 3142,
      "Ġà¦ıà¦¨à¦¸": 3143,
      "Ġà¦ıà¦¤à¦¦": 3144,
      "Ġà¦ıà¦«à¦¸": 3145,
      "Ġà¦¶à¦¡": 3146,
      "Ġà¦¶à¦¶": 3147,
      "Ġà¦¶à¦ªà¦¸": 3148,
      "Ġà¦¶à¦¤à¦ķ": 3149,
      "à¦ĸà¦®": 3150,
      "à¦ĸà¦Ĺ": 3151,
      "à¦ĸà¦²à¦Ń": 3152,
      "à¦ĸà¦ľà¦¨à¦ķ": 3153,
      "à¦ĸà¦ľà¦¨à¦ķà¦Ń": 3154,
      "Ġà¦¯à¦¤à¦ķ": 3155,
      "Ġà¦°à¦¨à¦¡": 3156,
      "à¦¼à¦¾'": 3157,
      "à¦Ĺà¦§": 3158,
      "à¦Ĺà¦¬à¦¨": 3159,
      "à¦Ĺà¦Ĺà¦²": 3160,
      "à¦Ĺà¦°à¦Ĺ": 3161,
      "à¦Ĺà¦¹à¦¨": 3162,
      "Ġà¦ľà¦ª": 3163,
      "Ġà¦ľà¦ŀ": 3164,
      "Ġà¦ľà¦ªà¦²": 3165,
      "Ġà¦ľà¦ĺà¦¨": 3166,
      "Ġà¦ľà¦ªà¦®": 3167,
      "à¦ıà¦ķà¦ľà¦¨à¦ª": 3168,
      "Ġà¦Ĺà¦Ľ": 3169,
      "Ġà¦Ĺà¦¬à¦²": 3170,
      "Ġà¦Ĺà¦¨à¦¨": 3171,
      "Ġà¦ļà¦ļ": 3172,
      "Ġà¦ļà¦ĸ": 3173,
      "Ġà¦ļà¦¸à¦®": 3174,
      "Ġà¦ļà¦Łà¦ķ": 3175,
      "à¦¥à¦¤": 3176,
      "à¦¥à¦¹": 3177,
      "à¦¥à¦ĵà¦¯": 3178,
      "à¦¥à¦²à¦ķ": 3179,
      "à¦¥à¦ķà¦¦": 3180,
      "à¦¥à¦°à¦®à¦¯": 3181,
      "Ġà¦®à¦¹à¦²": 3182,
      "Ġà¦ĸà¦ª": 3183,
      "Ġà¦Łà¦¨": 3184,
      "Ġà¦Łà¦¡": 3185,
      "Ġà¦Łà¦ĩà¦Ł": 3186,
      "Ġà¦ħà¦Ľ": 3187,
      "Ġà¦ħà¦¹": 3188,
      "Ġà¦ħà¦ĩ": 3189,
      "Ġà¦ħà¦²à¦ķ": 3190,
      "Ġà¦ħà¦°à¦ķ": 3191,
      "Ġà¦ħà¦¬à¦¤": 3192,
      "Ġà¦ħà¦ıà¦Ļ": 3193,
      "à¦«à¦¯": 3194,
      "à¦«à¦Łà¦ª": 3195,
      "à¦«à¦²à¦Ł": 3196,
      "à¦«à¦²à¦Ĺ": 3197,
      "Ġà¦īà¦¸": 3198,
      "Ġà¦īà§İà¦ķ": 3199,
      "Ġà¦īà¦Łà¦Ł": 3200,
      "Ġà¦¬à¦¸à¦²": 3201,
      "Ġà¦¬à¦¸à¦ı": 3202,
      "Ġà¦¬à¦¸à¦¤à¦¬": 3203,
      "à§ĩà¥¤\\": 3204,
      "à¦§à¦²": 3205,
      "à¦§à¦¬à¦¯": 3206,
      "Ġà¦Ńà¦°à¦¤": 3207,
      "à¦ªà¦°à¦ļ": 3208,
      "Ġà¦«à¦¸": 3209,
      "Ġà¦«à¦¶à¦²": 3210,
      "à¦£à¦¶": 3211,
      "à¦£à¦¬à¦°": 3212,
      "à¦łà¦¸": 3213,
      "à¦łà¦«": 3214,
      "à¦łà¦ķà¦°": 3215,
      "à¦Ńà¦®": 3216,
      "à¦Ńà¦²à¦Ń": 3217,
      "Ġà¦§à¦°à¦°à¦¨": 3218,
      "Ġà¦¥à¦®": 3219,
      "à¦īà¦ĩ": 3220,
      "à¦īà¦ĸ": 3221,
      "à¦īà¦²à¦ķ": 3222,
      "à¦īà¦¸à¦¬": 3223,
      "à¦īà¦¦à¦®": 3224,
      "à¦īà§İà¦ª": 3225,
      "à¦īà¦¥à¦Ĺ": 3226,
      "à¦īà¦ĩà¦Ļ": 3227,
      "Ġà¦ħà¦¨à¦¥à¦¨": 3228,
      "Ġà¦ĵà¦¶": 3229,
      "Ġà¦ĵà¦®à¦²": 3230,
      "Ġà¦ĵà¦°à¦Ľ": 3231,
      "Ġà¦ĵà¦ĩà¦ª": 3232,
      "Ġà¦ľà¦¨à¦¬": 3233,
      "à¦ĩà¦ķà¦¡": 3234,
      "à¦ĩà¦ķà¦Ĺ": 3235,
      "à¦¿à¦Ĥ'": 3236,
      "à¦¬à¦²à¦¯": 3237,
      "à¦¬à¦²à¦®": 3238,
      "à¦¬à¦²à¦īà¦ĩà¦¡": 3239,
      "à¦ĵà¦ľ": 3240,
      "à¦ĵà¦·": 3241,
      "à¦ĵà¦ĩà¦¯": 3242,
      "Ġà¦¡à¦¨": 3243,
      "Ġà¦¡à¦«": 3244,
      "Ġà¦¸à¦®à¦·": 3245,
      "Ġà¦¸à¦®à¦Ĺ": 3246,
      "Ġà¦°à¦Ļà¦¬": 3247,
      "Ġà¦°à¦Ļà¦®": 3248,
      "Ġà¦°à¦Ļà¦Ĺ": 3249,
      "Ġà¦Ĩà¦°à¦¸": 3250,
      "Ġà¦Ĩà¦°à¦®": 3251,
      "Ġà¦¸à¦¬à¦Ł": 3252,
      "Ġà¦¸à¦¬à¦Ĺ": 3253,
      "à¦ķà¦Łà¦°": 3254,
      "à¦ķà¦Łà¦¬à¦°": 3255,
      "à¦ķà¦Łà¦¤à¦®": 3256,
      "Ġà¦ĩà¦®à¦ª": 3257,
      "Ġà¦ĩà¦ıà¦¸à¦ª": 3258,
      "Ġà¦¬à¦²à¦²": 3259,
      "Ġà¦¬à¦²à¦¬": 3260,
      "Ġà¦¸à¦¹à¦°": 3261,
      "à¦īà¦¨à¦¸": 3262,
      "Ġà¦ľà¦²à¦¤": 3263,
      "à¦°à¦¸à¦Ł": 3264,
      "à¦°à¦¸à¦¸": 3265,
      "à¦°à¦¸à¦Ĺ": 3266,
      "à¦°à¦¸à¦Ļ": 3267,
      "Ġà¦¹à¦²à¦ĺà¦°": 3268,
      "à¦ĺà¦¸": 3269,
      "à¦ĺà¦ª": 3270,
      "à¦ĺà¦¶": 3271,
      "à¦ķà¦°à¦ĸ": 3272,
      "à¦ĩà¦¨à¦§": 3273,
      "à¦ĩà¦¨à¦«à¦°": 3274,
      "à¦ħà¦¯": 3275,
      "à¦ħà¦ļ": 3276,
      "à¦ħà¦§": 3277,
      "à¦ħà¦£": 3278,
      "à¦ħà¦¸à¦®": 3279,
      "à¦ħà¦¬à¦¸": 3280,
      "à¦ħà¦¬à¦¶": 3281,
      "à¦²à¦ķà¦¸à¦¹": 3282,
      "à¦¬à¦¨à¦¯": 3283,
      "à¦¬à¦¨à¦«": 3284,
      "à¦ķà¦¤à¦ķ": 3285,
      "à¦ķà¦¤à¦²": 3286,
      "à¦ķà¦¤à¦¯": 3287,
      "à¦°à¦ªà¦Ļ": 3288,
      "à¦¦à¦°à¦¯": 3289,
      "à¦¸à¦°à¦¡": 3290,
      "à¦¸à¦°à¦¶": 3291,
      "à¦¥à¦°à¦ķ": 3292,
      "Ġà¦¤à¦°à¦²à¦¯": 3293,
      "à¦¤à¦°à¦¬": 3294,
      "à¦¤à¦°à¦Ĺ": 3295,
      "à¦ĩà¦Łà¦¨": 3296,
      "à¦ıà¦ĩà¦¡": 3297,
      "à¦ıà¦¨à¦¸": 3298,
      "à¦ıà¦«à¦¸": 3299,
      "à¦ıà¦ıà¦®à¦¸": 3300,
      "à¦Ĩà¦¤": 3301,
      "à¦Ĩà¦Ń": 3302,
      "à¦Ĩà¦ī": 3303,
      "à¦Ĩà¦¬à¦¯": 3304,
      "à¦Ĩà¦¦à¦°": 3305,
      "à¦Ĩà¦ĩà¦Ł": 3306,
      "à¦Ĩà¦ĩà¦²": 3307,
      "à¦Ĩà¦Łà¦ķ": 3308,
      "à¦Ĩà¦ĩà¦«": 3309,
      "à¦Ĩà¦ĩà¦ľ": 3310,
      "à¦²à¦®à¦Ĺ": 3311,
      "Ġà¦īà¦ªà¦¦": 3312,
      "Ġà¦īà¦ªà¦¶à¦®": 3313,
      "à¦¨à¦Łà¦°à¦¡": 3314,
      "Ġà¦Ĩà¦²à¦¬": 3315,
      "à¦ĩà¦¡à¦¦": 3316,
      "à¦ĩà¦¡à¦¸à¦¡": 3317,
      "Ġà¦¶à¦¹à¦°à¦Ĺ": 3318,
      "à¦¬à¦¤à¦Ĺ": 3319,
      "Ġà¦¦à¦°à¦¬": 3320,
      "à¦ĩà¦²à¦¸à¦ķ": 3321,
      "à¦Łà¦¸à¦ķ": 3322,
      "à¦Łà¦¸à¦ĵà¦¯": 3323,
      "à¦¸à¦®à¦ķ": 3324,
      "à¦¸à¦®à¦¬": 3325,
      "Ġà¦¶à¦°à§İ": 3326,
      "Ġà¦ħà¦ªà¦Ľà¦¨": 3327,
      "Ġà¦ªà¦¥à¦ķ": 3328,
      "Ġà¦ħà¦ªà¦°à¦ľà¦¨à¦ķ": 3329,
      "Ġà¦ıà¦°à¦ªà¦°": 3330,
      "Ġà¦®à¦¨à¦°": 3331,
      "Ġà¦®à¦¨à¦ķ": 3332,
      "Ġà¦®à¦¨à¦®": 3333,
      "à¦¨à¦Ĺà¦¦": 3334,
      "à¦°à¦£à¦¯": 3335,
      "à¦°à¦£à¦Ĺ": 3336,
      "Ġà¦¬à¦ĩà¦®": 3337,
      "Ġà¦¬à¦ĩà¦ł": 3338,
      "à¦°à¦¬à¦¸": 3339,
      "à¦¤à¦²à¦¤": 3340,
      "Ġà¦ķà¦®à¦ķ": 3341,
      "Ġà¦¸à¦°à¦·": 3342,
      "à¦ĩà¦¸à¦¨": 3343,
      "à¦ĩà¦¸à¦Ĺ": 3344,
      "à¦Ĺà¦¨à¦¨": 3345,
      "Ġà¦°à¦ķà¦¬": 3346,
      "âĢľ": 3347,
      "à¦ªà¦ķà¦Ń": 3348,
      "à¦·à¦£à¦¶": 3349,
      "à¦·à¦£à¦Ĺ": 3350,
      "à¦Łà¦°à¦°": 3351,
      "à¦Łà¦°à¦¹": 3352,
      "à¦¯à¦®à¦ľ": 3353,
      "à¦ľà¦²à¦²": 3354,
      "à¦ľà¦²à¦ĸ": 3355,
      "à¦ľà¦²à¦§": 3356,
      "à¦¸à¦²à¦ĸ": 3357,
      "à¦¶à¦²à¦Ł": 3358,
      "à¦¾à¦Ĥà¥¤": 3359,
      "à¦°à¦Ļà¦¬": 3360,
      "à¦¨à¦¨à¦¬à¦²": 3361,
      "à¦ĩà¦ªà¦Ł": 3362,
      "à¦ĩà¦ªà¦²": 3363,
      "à¦ķà¦¨à¦ķà¦¨": 3364,
      "Ġà¦ľà¦®à¦Ľ": 3365,
      "à¦¦à¦¨à¦°à¦¤": 3366,
      "Ġà§¨à§§": 3367,
      "Ġà§¨à§«": 3368,
      "Ġà¦«à¦²à¦ķà¦Ł": 3369,
      "à¦¦à¦¸à¦ĩ": 3370,
      "Ġà¦ħà¦°à¦«": 3371,
      "à§ĩ,à¥¤": 3372,
      "à¦¡à¦¸à¦¹": 3373,
      "à¦ħà¦²à¦¸": 3374,
      "Ġà¦Ĩà¦īà¦Łà¦²": 3375,
      "Ġà¦Ĩà¦īà¦Łà¦«à¦°": 3376,
      "à¦¯à¦ľà¦¨à¦ķà¦Ń": 3377,
      "à¦¨à¦¬à¦®": 3378,
      "à¦¨à¦¬à¦¶": 3379,
      "à¦®à¦ļà¦Ł": 3380,
      "à¦®à¦ļà¦ĵ": 3381,
      "à¦²à¦ļà¦²à¦¨": 3382,
      "à¦ªà¦ķà¦¥à¦¨à¦°à¦¤": 3383,
      "à¦ĩà¦«à¦¤": 3384,
      "à¦ĩà¦«à¦¬": 3385,
      "à¦ĩà¦«à¦¸": 3386,
      "à¦ĩà¦«à¦Ń": 3387,
      "Ġ27": 3388,
      "Ġ29": 3389,
      "Ġ200": 3390,
      "Ġà¦·à¦·": 3391,
      "Ġà¦ıà¦¸à¦ķà¦°": 3392,
      "à¦ļà¦²à¦ľ": 3393,
      "Ġà¦ıà¦ĩà¦ļà¦ª": 3394,
      "à¦ªà¦²à¦¬": 3395,
      "Ġà¦ĸà¦¨à¦¨à¦¸": 3396,
      "Ġà¦¸à¦ķà¦²à¦ķ": 3397,
      "Ġà§§à§¨": 3398,
      "à¦ķà¦¸à¦ĵ": 3399,
      "Ġà¦ıà¦Ĺà¦¯": 3400,
      "à¦īà¦¬à¦Ł": 3401,
      "à¦īà¦¬à¦Ĺ": 3402,
      "à¦Ĩà¦®à¦¸": 3403,
      "à¦ķà¦Ĩà¦ªà¦Ł": 3404,
      "à¦¤à¦¨à¦¤": 3405,
      "à¦¤à¦¨à¦¶": 3406,
      "Ġà¦ħà¦¬à¦§": 3407,
      "Ġ32": 3408,
      "Ġ38": 3409,
      "Ġ311": 3410,
      "Ġ344": 3411,
      "Ġà¦¨à¦¬à¦Ĺ": 3412,
      "Ġà¦Ĺà¦Ńà¦°": 3413,
      "Ġà¦ĸà¦¬à¦°à¦Ł": 3414,
      "à¦²à¦ªà¦¦": 3415,
      "Ġ110": 3416,
      "Ġà¦ĺà¦¨à¦¬à¦¸à¦¤": 3417,
      "à§§à§ª": 3418,
      "Ġ52": 3419,
      "à¦¯à¦¶à¦¸": 3420,
      "à¦ķà¦¶à¦¨à¦Ł": 3421,
      "Ġ41": 3422,
      "Ġà¦ķà¦²à¦®à¦Ł": 3423,
      "Ġà¦Ĩà¦§à¦ª": 3424,
      "à¦¨à¦Ńà¦°": 3425,
      "Ġà¦«à¦°à¦ıà¦Ń": 3426,
      "à¦ıà¦®à¦ĩà¦ī": 3427,
      "à§İà¦¸à¦ķà¦°": 3428,
      "à¦¸à¦¹à¦ª": 3429,
      "à¦Ńà¦¬à¦¨à¦Ĺ": 3430,
      "à¦ıà¦ķà¦¸à¦Ļ": 3431,
      "Ġà¦Ĺà¦łà¦¨à¦®": 3432,
      "à¦ªà¦Łà¦Ĺ": 3433,
      "à¦¶à¦¦à¦Ń": 3434,
      "Ġà§«à§©": 3435,
      "Ġ65": 3436,
      "Ġ649": 3437,
      "Ġà¦¨à¦ĸà¦Ĺ": 3438,
      "à¦ĩà¦¨à¦¸à¦ĵà¦¯": 3439,
      "à¦ªà¦¦à¦Ń": 3440,
      "Ġà¦ħà¦ľà¦Ĺà¦°": 3441,
      "Ġà¦ªà¦ªà¦Ĩà¦ª": 3442,
      "Ġà¦®à¦¶à¦ľ": 3443,
      "à¦¸à¦¦à¦Ńà¦¬à¦¨": 3444,
      "0095": 3445,
      "Ġà¦ħà¦¸à¦®à¦¤à¦²": 3446,
      "Ġà¦īà¦ĩà¦Ĺà¦²à¦¸": 3447,
      "Ġà¦¶à¦¤à¦Ĺ": 3448,
      "Ġà¦¡à¦²à¦¹": 3449,
      "Ġà¦Īà¦¦": 3450,
      "Ġà¦¬à¦Łà¦®à¦¸à¦¹": 3451,
      "Ġ96": 3452,
      "Ġà¦Łà¦¹à¦²à¦¦": 3453,
      "Ġà¦Łà¦¹à¦²à¦°à¦¤": 3454,
      "Ġà¦īà¦ªà¦ķà¦°à¦£à¦Ĺ": 3455,
      "Ġ71": 3456,
      "à¦ľà¦ªà¦®": 3457,
      "Ġ80": 3458,
      "Ġà¦¯à¦®à¦ľà¦¦": 3459,
      "Ġà¦Ĩà¦ĩà¦¨à¦¶": 3460,
      "Ġà¦Ĺà¦ľà¦Ĺà¦ľ": 3461,
      "Ġà¦Ńà¦¬à¦ĺ": 3462,
      "Ġà¦Ĳà¦¶": 3463,
      "Ġ.-": 3464,
      "à¦¨à¦ıà¦ľ": 3465,
      "à¦²à¦¹à¦ª": 3466,
      "à¦®à¦«à¦²à¦ķ": 3467,
      "à¦¹à¦Łà¦¡à¦Ĺ": 3468,
      "Ġ5336": 3469,
      "à¦¤à¦ķà¦°à¦¨": 3470,
      "Ġà¦¡à¦ľà¦¬à¦²": 3471,
      "à¦ıà¦®à¦¨à¦ķ": 3472,
      "Ġ330": 3473,
      "à¦Īà¦ķ": 3474,
      "à¦Īà¦¦": 3475,
      "à¦ķà¦ľà¦®à¦ķ": 3476,
      "à¦ıà¦ĸà¦¨à¦ĵ": 3477,
      "à¦ıà¦ĩà¦ļà¦ıà¦¸à¦¬": 3478,
      "Ġ1800": 3479,
      "à¦ķà¦²à¦®à¦Ĺ": 3480,
      "Ġà¦ĩà¦īà¦ıà¦¨à¦ĵ": 3481,
      "Ġà¦ĩà¦īà¦ıà¦«à¦¸": 3482,
      "1800": 3483,
      "à¦Łà¦ķà¦Łà¦ķ": 3484,
      "Ġà¦ħà¦¥à¦ļ": 3485,
      "Ġ5003": 3486,
      "à¦ķà¦ľà¦®à¦ķà¦ª": 3487,
      "Ġà¦ªà¦®à¦ªà¦®": 3488,
      "Ġ3113": 3489,
      "Ġ1102": 3490
    },
    "merges": [
      [
        "à",
        "¦"
      ],
      [
        "à",
        "§"
      ],
      [
        "Ġ",
        "à¦"
      ],
      [
        "à¦",
        "¾"
      ],
      [
        "à§",
        "ĩ"
      ],
      [
        "à¦",
        "°"
      ],
      [
        "à¦",
        "¿"
      ],
      [
        "à¦",
        "ķ"
      ],
      [
        "à§",
        "į"
      ],
      [
        "à¦",
        "¨"
      ],
      [
        "à¦",
        "Ł"
      ],
      [
        "à¦",
        "²"
      ],
      [
        "à¦",
        "¯"
      ],
      [
        "ı",
        "à¦ķ"
      ],
      [
        "à¦",
        "¼"
      ],
      [
        "à§",
        "ģ"
      ],
      [
        "à¦",
        "Ľ"
      ],
      [
        "Ġà¦",
        "ıà¦ķ"
      ],
      [
        "Ġà¦",
        "ª"
      ],
      [
        "à§",
        "ĭ"
      ],
      [
        "Ġà¦",
        "¬"
      ],
      [
        "à¦",
        "ľ"
      ],
      [
        "Ġà¦",
        "ķ"
      ],
      [
        "à¦",
        "¤"
      ],
      [
        "à¦",
        "¬"
      ],
      [
        "à¦",
        "¸"
      ],
      [
        "Ġà¦",
        "¦"
      ],
      [
        "à¦¼",
        "à§ĩ"
      ],
      [
        "Ġà¦",
        "®"
      ],
      [
        "Ġà¦ıà¦ķ",
        "à¦Ł"
      ],
      [
        "à¦ľ",
        "à¦¨"
      ],
      [
        "à¦",
        "¡"
      ],
      [
        "Ġà¦",
        "¸"
      ],
      [
        "à¦",
        "®"
      ],
      [
        "à¦",
        "ıà¦ķ"
      ],
      [
        "à¦",
        "¦"
      ],
      [
        "à¦",
        "ļ"
      ],
      [
        "à¦",
        "ª"
      ],
      [
        "Ġà¦",
        "Ĩ"
      ],
      [
        "à¦",
        "¶"
      ],
      [
        "à¦",
        "¹"
      ],
      [
        "Ġà¦",
        "²"
      ],
      [
        "à§",
        "Ģ"
      ],
      [
        "Ġà¦Ĩ",
        "à¦Ľ"
      ],
      [
        "à¦",
        "Ĥ"
      ],
      [
        "à¦",
        "·"
      ],
      [
        "Ġà¦ª",
        "à¦°"
      ],
      [
        "à¦",
        "ĩ"
      ],
      [
        "à¦ıà¦ķ",
        "à¦Ł"
      ],
      [
        "Ġà¦",
        "¤"
      ],
      [
        "Ġà¦",
        "¨"
      ],
      [
        "Ġà¦ķ",
        "à¦°"
      ],
      [
        "Ġà¦ıà¦ķ",
        "à¦ľà¦¨"
      ],
      [
        "à¦",
        "ģ"
      ],
      [
        "Ġà¦",
        "¹"
      ],
      [
        "¥",
        "¤"
      ],
      [
        "à",
        "¥¤"
      ],
      [
        "Ġà¦",
        "ı"
      ],
      [
        "Ġà¦",
        "¶"
      ],
      [
        "à¦",
        "ĸ"
      ],
      [
        "Ġà¦",
        "¯"
      ],
      [
        "Ġà¦",
        "°"
      ],
      [
        "Ġà¦ı",
        "à¦¬"
      ],
      [
        "à¦¼",
        "à¦¾"
      ],
      [
        "Ġà¦",
        "Ľ"
      ],
      [
        "à¦¾",
        "à¦ģ"
      ],
      [
        "à¦",
        "Ĺ"
      ],
      [
        "Ġà¦",
        "ľ"
      ],
      [
        "Ġà¦ķà¦°",
        "à¦Ľ"
      ],
      [
        "à¦¼",
        "à¦¿"
      ],
      [
        "à¦ıà¦ķ",
        "à¦ľà¦¨"
      ],
      [
        "Ġà¦",
        "Ĺ"
      ],
      [
        "Ġà¦",
        "ļ"
      ],
      [
        "à¦",
        "¥"
      ],
      [
        "Ġà¦®",
        "à¦¹"
      ],
      [
        "Ġà¦",
        "ĸ"
      ],
      [
        "Ġà¦",
        "Ł"
      ],
      [
        "Ġà¦",
        "ħ"
      ],
      [
        "à¦",
        "«"
      ],
      [
        "Ġà¦",
        "ī"
      ],
      [
        "Ġà¦¬",
        "à¦¸"
      ],
      [
        "à§ĩ",
        "à¥¤"
      ],
      [
        "Ġ",
        "à¥¤"
      ],
      [
        "à¦",
        "§"
      ],
      [
        "Ġà¦",
        "§"
      ],
      [
        "Ġà¦",
        "Ń"
      ],
      [
        "à¦ª",
        "à¦°"
      ],
      [
        "Ġà¦",
        "«"
      ],
      [
        "à¦",
        "Ļ"
      ],
      [
        "à¦",
        "£"
      ],
      [
        "à¦²",
        "à¦Ľ"
      ],
      [
        "à¦¯",
        "à¦ķ"
      ],
      [
        "à¦",
        "ł"
      ],
      [
        "à¦",
        "Ń"
      ],
      [
        "Ġà¦§",
        "à¦°"
      ],
      [
        "Ġà¦ī",
        "à¦ªà¦°"
      ],
      [
        "Ġà¦",
        "ĺ"
      ],
      [
        "à§",
        "Į"
      ],
      [
        "Ġà¦",
        "¥"
      ],
      [
        "à¦",
        "ī"
      ],
      [
        "Ġà¦ħ",
        "à¦¨"
      ],
      [
        "à¦®",
        "à¦¨"
      ],
      [
        "à§",
        "Ĥ"
      ],
      [
        "Ġà¦",
        "ĵ"
      ],
      [
        "à¦Ł",
        "à¦Ľ"
      ],
      [
        "Ġà¦ľ",
        "à¦¨"
      ],
      [
        "à¦ĩ",
        "à¦ķ"
      ],
      [
        "à¦¿",
        "à¦Ĥ"
      ],
      [
        "à¦¬",
        "à¦²"
      ],
      [
        "à¦",
        "ĵ"
      ],
      [
        "Ġà¦",
        "¡"
      ],
      [
        "Ġà¦¸",
        "à¦®"
      ],
      [
        "Ġà¦®",
        "à¦§"
      ],
      [
        "à§",
        "ĥ"
      ],
      [
        "à¦ĸ",
        "à¦¨"
      ],
      [
        "Ġà¦¯",
        "à¦ĸà¦¨"
      ],
      [
        "Ġà¦°",
        "à¦Ļ"
      ],
      [
        "à¦ĵ",
        "à¦¯"
      ],
      [
        "Ġà¦Ĩ",
        "à¦°"
      ],
      [
        "à¦",
        "ŀ"
      ],
      [
        "à¦ĩ",
        "à¦°"
      ],
      [
        "à§",
        "Ī"
      ],
      [
        "à¦ĸ",
        "à¦Ľ"
      ],
      [
        "à¦Ľ",
        "à¦¨"
      ],
      [
        "à¦¦",
        "à¦²"
      ],
      [
        "Ġà¦",
        "Ŀ"
      ],
      [
        "Ġà¦¬",
        "à¦¯"
      ],
      [
        "Ġà¦¸",
        "à¦¬"
      ],
      [
        "à¦ķ",
        "à¦Ł"
      ],
      [
        "Ġà¦¬",
        "à¦¡"
      ],
      [
        "Ġà¦Ľ",
        "à¦¬"
      ],
      [
        "à¦ķ",
        "à¦ľà¦¨"
      ],
      [
        "à¦",
        "Ŀ"
      ],
      [
        "Ġà¦",
        "ĩ"
      ],
      [
        "Ġà¦¬",
        "à¦²"
      ],
      [
        "Ġà¦ª",
        "à¦¡"
      ],
      [
        "Ġà¦¸",
        "à¦¹"
      ],
      [
        "à¦ī",
        "à¦¨"
      ],
      [
        "à¦¸",
        "à¦Ľ"
      ],
      [
        "Ġà¦ľ",
        "à¦²"
      ],
      [
        "à¦¨",
        "à¦ľà¦¨"
      ],
      [
        "à¦°",
        "à¦®"
      ],
      [
        "à¦Ł",
        "à¦¬à¦²"
      ],
      [
        "Ġà¦¸à¦®",
        "à¦¯"
      ],
      [
        "Ġà¦°",
        "à¦¯"
      ],
      [
        "à¦¬",
        "à¦ķ"
      ],
      [
        "à¦°",
        "à¦¸"
      ],
      [
        "à¦¬",
        "à¦°"
      ],
      [
        "à¦¬",
        "à¦¯"
      ],
      [
        "Ġà¦¹",
        "à¦²"
      ],
      [
        "à¦°",
        "à¦¤"
      ],
      [
        "à¦ķ",
        "à¦Ĺ"
      ],
      [
        "Ġà¦ķ",
        "à¦¥"
      ],
      [
        "Ġà¦ķ",
        "à¦¯"
      ],
      [
        "à¦",
        "ĺ"
      ],
      [
        "à¦ķ",
        "à¦°"
      ],
      [
        "à¦Ł",
        "à¦ª"
      ],
      [
        "à¦ĩ",
        "à¦¨"
      ],
      [
        "Ġà¦¹",
        "à¦¯"
      ],
      [
        "à¦",
        "ħ"
      ],
      [
        "à¦²",
        "à¦ķ"
      ],
      [
        "Ġà¦ħ",
        "à¦²"
      ],
      [
        "à¦¬",
        "à¦¨"
      ],
      [
        "à¦®",
        "à¦²"
      ],
      [
        "à¦«",
        "à¦°"
      ],
      [
        "Ġà¦¦",
        "à¦²"
      ],
      [
        "à¦²",
        "à¦¨"
      ],
      [
        "à§ĩ",
        "à¦ģ"
      ],
      [
        "à¦ķ",
        "à¦¤"
      ],
      [
        "Ġà¦¹",
        "à¦ļ"
      ],
      [
        "à¦ĩ",
        "à¦ľà¦¨"
      ],
      [
        "à¦°",
        "à¦ª"
      ],
      [
        "Ġà¦¬",
        "à¦²à¦Ľ"
      ],
      [
        "à¦¸",
        "à¦¬"
      ],
      [
        "à¦ıà¦ķ",
        "à¦¦à¦²"
      ],
      [
        "à¦¦",
        "à¦°"
      ],
      [
        "à¦¸",
        "à¦°"
      ],
      [
        "à¦ª",
        "à¦¤"
      ],
      [
        "Ġà¦ī",
        "à¦ł"
      ],
      [
        "à¦¹",
        "à¦°"
      ],
      [
        "à¦¶",
        "à¦¨"
      ],
      [
        "à¦¥",
        "à¦°"
      ],
      [
        "Ġà¦¤",
        "à¦°"
      ],
      [
        "à¦¤",
        "à¦°"
      ],
      [
        "Ġà¦ıà¦ķ",
        "à¦¦à¦²"
      ],
      [
        "à¦ĩ",
        "à¦Ł"
      ],
      [
        "à¦",
        "ı"
      ],
      [
        "à¦¯",
        "à¦¬"
      ],
      [
        "Ġà¦",
        "¢"
      ],
      [
        "à¦ħ",
        "à¦¨"
      ],
      [
        "à¦Ł",
        "à¦¬"
      ],
      [
        "Ġà¦ļ",
        "à¦¡"
      ],
      [
        "à§ģ",
        "à¦ģ"
      ],
      [
        "à¦",
        "Ĩ"
      ],
      [
        "à¦²",
        "à¦®"
      ],
      [
        "à¦°",
        "à¦ķ"
      ],
      [
        "Ġà¦Ĩ",
        "à¦ķ"
      ],
      [
        "à¦£",
        "à¦ķ"
      ],
      [
        "Ġà¦ķ",
        "à¦®à¦²"
      ],
      [
        "Ġà¦ļ",
        "à¦²"
      ],
      [
        "Ġà¦¬",
        "à¦¨"
      ],
      [
        "Ġà¦ī",
        "à¦ª"
      ],
      [
        "Ġà¦ıà¦ķ",
        "à¦¸"
      ],
      [
        "à¦¨",
        "à¦Ł"
      ],
      [
        "Ġà¦Ĩ",
        "à¦²"
      ],
      [
        "à¦¶",
        "à¦®"
      ],
      [
        "à¦¨",
        "à¦¦"
      ],
      [
        "Ġà¦ı",
        "à¦¶"
      ],
      [
        "à¦ĩ",
        "à¦¡"
      ],
      [
        "Ġà¦¶",
        "à¦¹à¦°"
      ],
      [
        "à¦¬",
        "à¦¤"
      ],
      [
        "Ġà¦Ń",
        "à¦¬à¦¨"
      ],
      [
        "Ġà¦¬",
        "à¦¹"
      ],
      [
        "Ġà¦¦",
        "à¦°"
      ],
      [
        "Ġà¦¬",
        "à¦°"
      ],
      [
        "Ġà¦¨",
        "à¦¦"
      ],
      [
        "à¦°",
        "à¦Ł"
      ],
      [
        "à¦Ĺ",
        "à¦²"
      ],
      [
        "à§ģ",
        "'"
      ],
      [
        "Ġà¦ĩ",
        "à¦īà¦¨"
      ],
      [
        "à¦ª",
        "à¦¬à¦¯"
      ],
      [
        "à¦ķ",
        "à¦¯"
      ],
      [
        "Ġà¦ĺ",
        "à¦°"
      ],
      [
        "à¦ĩ",
        "à¦²"
      ],
      [
        "à¦Ł",
        "à¦¸"
      ],
      [
        "à¦¸",
        "à¦®"
      ],
      [
        "à¦¿",
        "-"
      ],
      [
        "Ġà¦¶",
        "à¦°"
      ],
      [
        "Ġà¦ħ",
        "à¦ª"
      ],
      [
        "à¦¼",
        "à§ĭ"
      ],
      [
        "Ġà¦ª",
        "à¦¥"
      ],
      [
        "Ġà¦ħ",
        "à¦ªà¦°"
      ],
      [
        "Ġà¦",
        "ł"
      ],
      [
        "à¦°",
        "à¦ľà¦¨"
      ],
      [
        "à¦¯à¦¬",
        "à¦¹"
      ],
      [
        "à¦¿",
        "à¦ģ"
      ],
      [
        "à¦°",
        "à¦Ľ"
      ],
      [
        "Ġà¦īà¦ł",
        "à¦Ľ"
      ],
      [
        "à¦Ł",
        "à¦Ń"
      ],
      [
        "Ġà¦ľ",
        "à¦¡"
      ],
      [
        "Ġ",
        "à§"
      ],
      [
        "Ġà¦ı",
        "à¦°"
      ],
      [
        "Ġà¦®",
        "à¦¨"
      ],
      [
        "à¦¸",
        "à¦¬à¦²"
      ],
      [
        "à¦¨",
        "à¦Ĺ"
      ],
      [
        "Ġà¦Ł",
        "à¦ª"
      ],
      [
        "Ġà¦¦",
        "à¦®"
      ],
      [
        "Ġà¦ĵ",
        "à¦¯"
      ],
      [
        "Ġà¦¬à¦¹",
        "à¦¨"
      ],
      [
        "Ġà¦Ĺ",
        "à¦°"
      ],
      [
        "à¦ī",
        "à¦Ł"
      ],
      [
        "à¦¹",
        "à¦²"
      ],
      [
        "Ġà¦®",
        "à¦ŀ"
      ],
      [
        "à¦°",
        "à¦£"
      ],
      [
        "à¦ª",
        "à¦¡"
      ],
      [
        "Ġà¦Ĩ",
        "à¦¸à¦Ľ"
      ],
      [
        "Ġà¦¬",
        "à¦ĩ"
      ],
      [
        "à¦ª",
        "à¦¨"
      ],
      [
        "Ġà¦²",
        "à¦®"
      ],
      [
        "à¦°",
        "à¦¬"
      ],
      [
        "Ġà¦¸",
        "à¦Ļ"
      ],
      [
        "Ġà¦ı",
        "à¦²"
      ],
      [
        "à¦·",
        "à¦ķ"
      ],
      [
        "Ġà¦ª",
        "à¦¤"
      ],
      [
        "à¦¬",
        "à¦¸"
      ],
      [
        "à¦¤",
        "à¦²"
      ],
      [
        "Ġà¦ķà¦°",
        "à¦¤"
      ],
      [
        "Ġà¦ļ",
        "à¦¶à¦®"
      ],
      [
        "à¦°",
        "à¦²"
      ],
      [
        "à¦¯",
        "à¦¸"
      ],
      [
        "Ġà¦®",
        "à¦¯"
      ],
      [
        "Ġà¦¬à¦°",
        "à¦«"
      ],
      [
        "à¦Ĺ",
        "à¦ľ"
      ],
      [
        "à¦ĺ",
        "à¦°"
      ],
      [
        "à¦ķ",
        "à¦¦"
      ],
      [
        "à¦Ľ",
        "à¦ª"
      ],
      [
        "à¦ļ",
        "à¦Ľ"
      ],
      [
        "à¦¨",
        "à¦Ľ"
      ],
      [
        "Ġà¦ķ",
        "à¦®"
      ],
      [
        "Ġà¦ī",
        "à¦¡"
      ],
      [
        "à¦°",
        "à¦«à¦°"
      ],
      [
        "à¦Ł",
        "à¦°à¦¸"
      ],
      [
        "Ġà¦Ĺ",
        "à¦²"
      ],
      [
        "Ġà¦ª",
        "à¦Łà¦Ń"
      ],
      [
        "Ġà¦Ń",
        "à¦¦"
      ],
      [
        "Ġà¦¸",
        "à¦°"
      ],
      [
        "Ġà¦ĩ",
        "à¦Ł"
      ],
      [
        "Ġà¦Ń",
        "à¦°"
      ],
      [
        "à¦",
        "¢"
      ],
      [
        "à¦²",
        "à¦¤"
      ],
      [
        "à¦¤",
        "à¦¬à¦¯"
      ],
      [
        "à¦Ŀ",
        "à¦ĸ"
      ],
      [
        "à¦°",
        "à¦¦"
      ],
      [
        "Ġà¦īà¦ª",
        "à¦Ń"
      ],
      [
        "à¦ķ",
        "à¦®à¦²"
      ],
      [
        "à¦ĩ",
        "à¦¸"
      ],
      [
        "à¦Ł",
        "à¦ķ"
      ],
      [
        "Ġà¦ķ",
        "à¦²"
      ],
      [
        "à¦Ĺ",
        "à¦¨"
      ],
      [
        "à¦ķ",
        "à¦²"
      ],
      [
        "à¦ķ",
        "à¦Ľ"
      ],
      [
        "à¦ĩ",
        "à¦Ľ"
      ],
      [
        "Ġà¦§à¦°",
        "à¦Ľ"
      ],
      [
        "à¦¹",
        "à¦£"
      ],
      [
        "Ġà¦¯",
        "à¦¨"
      ],
      [
        "à¦²",
        "à¦«"
      ],
      [
        "Ġà¦°",
        "à¦ķ"
      ],
      [
        "â",
        "Ģ"
      ],
      [
        "à¦·",
        "à¦°"
      ],
      [
        "à¦ķ",
        "à¦ª"
      ],
      [
        "Ġà¦ħ",
        "à¦¸"
      ],
      [
        "Ġà¦Ĩ",
        "à¦Ĺ"
      ],
      [
        "à¦ª",
        "à¦ķ"
      ],
      [
        "à¦ī",
        "à¦ľ"
      ],
      [
        "à¦¾",
        "à¥¤"
      ],
      [
        "à¦·",
        "à¦£"
      ],
      [
        "Ġà¦¦à¦°",
        "à¦ľ"
      ],
      [
        "à§",
        "İ"
      ],
      [
        "Ġà¦Ĩ",
        "à¦®"
      ],
      [
        "à§ĭ",
        "à¦ģ"
      ],
      [
        "à¦Ł",
        "à¦°"
      ],
      [
        "Ġà¦ī",
        "à¦²"
      ],
      [
        "Ġà¦ħ",
        "à¦¬à¦¸"
      ],
      [
        "à¦ľ",
        "à¦Ľ"
      ],
      [
        "à¦®",
        "à¦¡"
      ],
      [
        "à¦¯",
        "à¦®"
      ],
      [
        "à¦¥",
        "à¦¨"
      ],
      [
        "à¦ľ",
        "à¦²"
      ],
      [
        "à¦®",
        "à¦¹"
      ],
      [
        "à¦¼",
        "à§Ģ"
      ],
      [
        "à¦ĩ",
        "à¦®"
      ],
      [
        "à¦¸",
        "à¦²"
      ],
      [
        "Ġà¦¦",
        "à¦¡"
      ],
      [
        "Ġà¦ķ",
        "à¦¨"
      ],
      [
        "Ġà¦ľ",
        "à¦Ļ"
      ],
      [
        "à¦¶",
        "à¦²"
      ],
      [
        "à¦ı",
        "à¦ĩ"
      ],
      [
        "à¦«",
        "à¦ª"
      ],
      [
        "Ġà¦®",
        "à¦¤"
      ],
      [
        "à¦¾",
        "à¦Ĥ"
      ],
      [
        "à¦ķ",
        "à¦ķ"
      ],
      [
        "Ġà¦ĵ",
        "à¦ªà¦°"
      ],
      [
        "à¦°",
        "à¦Ļ"
      ],
      [
        "Ġà¦ī",
        "à¦ľ"
      ],
      [
        "à¦ķ",
        "à¦¡"
      ],
      [
        "à¦ļ",
        "à¦ľà¦¨"
      ],
      [
        "à¦°à¦®",
        "à¦¹"
      ],
      [
        "à¦¨",
        "à¦¨"
      ],
      [
        "à¦ļ",
        "à¦¶à¦®"
      ],
      [
        "âĢ",
        "Į"
      ],
      [
        "âĢĮ",
        "à§į"
      ],
      [
        "à¦°",
        "à¦¦à¦°"
      ],
      [
        "à¦ĩ",
        "à¦ª"
      ],
      [
        "à¦°",
        "à¦Ĺ"
      ],
      [
        "à¦¬",
        "à¦¦"
      ],
      [
        "Ġà¦ħ",
        "à¦«"
      ],
      [
        "Ġà¦ļ",
        "à¦²à¦Ľ"
      ],
      [
        "Ġà¦¬",
        "à¦ķ"
      ],
      [
        "à¦¼",
        "à¥¤"
      ],
      [
        "à¦ª",
        "à¦¸"
      ],
      [
        "à¦¶",
        "à¦¯"
      ],
      [
        "à¦¶",
        "à¦¹à¦°"
      ],
      [
        "Ġà¦ħ",
        "à¦Ń"
      ],
      [
        "à¦ķ",
        "à¦¨"
      ],
      [
        "à¦¤",
        "à¦¬"
      ],
      [
        "à¦Ĺ",
        "à¦°"
      ],
      [
        "à¦°à¦®",
        "à¦¯"
      ],
      [
        "Ġà¦ľ",
        "à¦®"
      ],
      [
        "à¦¦",
        "à¦¨"
      ],
      [
        "Ġà§",
        "¨"
      ],
      [
        "à¦¯",
        "à¦°"
      ],
      [
        "à¦®",
        "à¦¯"
      ],
      [
        "à¦ĩ",
        "à¦Ń"
      ],
      [
        "à¦®",
        "à¦Ľ"
      ],
      [
        "Ġà¦²",
        "à¦¨"
      ],
      [
        "à¦ī",
        "à¦¬à¦¯"
      ],
      [
        "à¦¼",
        "à§ģ"
      ],
      [
        "Ġà¦ı",
        "à¦Ł"
      ],
      [
        "à¦ĸ",
        "à¦¤"
      ],
      [
        "Ġà¦«",
        "à¦²"
      ],
      [
        "à¦§",
        "à¦ķ"
      ],
      [
        "à¦¯",
        "à¦Ł"
      ],
      [
        "à¦°",
        "à¦¨"
      ],
      [
        "Ġà¦Ĩ",
        "à¦«"
      ],
      [
        "Ġà¦Ĩ",
        "à¦¸"
      ],
      [
        "Ġà¦ī",
        "à¦¦"
      ],
      [
        "à¦°",
        "à¦°"
      ],
      [
        "à¦¶",
        "à¦ķà¦¦"
      ],
      [
        "Ġà¦¸",
        "à¦¨"
      ],
      [
        "à¦®",
        "à¦°"
      ],
      [
        "à¦¯",
        "à¦¨"
      ],
      [
        "à¦Ĩ",
        "à¦ķ"
      ],
      [
        "à¦¦",
        "à¦¸"
      ],
      [
        "à¦®",
        "à¦¬"
      ],
      [
        "à¦¾",
        "-"
      ],
      [
        "Ġà¦¹",
        "à¦ķ"
      ],
      [
        "Ġà¦Ń",
        "à¦²"
      ],
      [
        "Ġà¦ħ",
        "à¦°"
      ],
      [
        "Ġà¦Ĩ",
        "à¦ĩà¦¸"
      ],
      [
        "à¦®",
        "à¦ª"
      ],
      [
        "Ġà¦Ŀ",
        "à¦°"
      ],
      [
        "à¦Ł",
        "à¦¶"
      ],
      [
        "Ġà¦Ĩ",
        "à¦ª"
      ],
      [
        "Ġà¦¨",
        "à¦®"
      ],
      [
        "à¦¤",
        "à¦ķ"
      ],
      [
        "à§ĭ",
        "à¦Ĥ"
      ],
      [
        "à¦®",
        "à¦ŀ"
      ],
      [
        "à§ĩ",
        ","
      ],
      [
        "à¦¡",
        "à¦¸"
      ],
      [
        "Ġà¦¸à¦°",
        "à¦ŀ"
      ],
      [
        "Ġà¦Ĩ",
        "à¦¬"
      ],
      [
        "Ġà¦Ĩ",
        "à¦ļ"
      ],
      [
        "Ġà¦¶",
        "à¦ª"
      ],
      [
        "Ġà¦¸",
        "à¦¦à¦¸"
      ],
      [
        "Ġà¦«",
        "à¦Ł"
      ],
      [
        "à¦°",
        "à¦¯"
      ],
      [
        "à¦¶",
        "à¦ķ"
      ],
      [
        "à¦¨",
        "à¦ķ"
      ],
      [
        "à¦Ĩ",
        "à¦ª"
      ],
      [
        "à¦¸",
        "à¦ª"
      ],
      [
        "Ġà¦²",
        "à¦¡"
      ],
      [
        "à¦ķ",
        "à¦¶"
      ],
      [
        "Ġà¦ħ",
        "à¦¤"
      ],
      [
        "à¦°",
        "à¦¶"
      ],
      [
        "à¦·",
        "à¦Ł"
      ],
      [
        "à¦Ń",
        "à¦¸"
      ],
      [
        "à¦ħ",
        "à¦²"
      ],
      [
        "à¦ª",
        "à¦¥"
      ],
      [
        "à¦°",
        "à¦ļ"
      ],
      [
        "Ġà¦Ĩ",
        "à¦Ļ"
      ],
      [
        "à¦ļ",
        "à¦ķ"
      ],
      [
        "à¦ĩ",
        "à¦¯"
      ],
      [
        "Ġà¦¶",
        "à¦ķ"
      ],
      [
        "Ġà¦®",
        "à¦ľ"
      ],
      [
        "Ġà¦ª",
        "à¦£"
      ],
      [
        "Ġà¦ĩ",
        "à¦Ń"
      ],
      [
        "Ġà¦Ĩ",
        "à¦īà¦Ł"
      ],
      [
        "à¦¨",
        "à¦¯"
      ],
      [
        "à¦¯",
        "à¦ľà¦¨"
      ],
      [
        "à¦¨",
        "à¦¬"
      ],
      [
        "Ġà¦¸à¦¬",
        "à¦ľ"
      ],
      [
        "Ġà¦ĩ",
        "à¦¶"
      ],
      [
        "à¦¯à¦¬",
        "à¦¸"
      ],
      [
        "à¦®",
        "à¦ļ"
      ],
      [
        "à¦·",
        "à¦¦"
      ],
      [
        "Ġà¦ī",
        "à¦ļ"
      ],
      [
        "à¦°",
        "à¦¹"
      ],
      [
        "Ġà¦ķà¦¨",
        "à¦¸"
      ],
      [
        "Ġà¦Ĩ",
        "à¦¨"
      ],
      [
        "Ġà¦ī",
        "à¦¤"
      ],
      [
        "Ġà¦¹",
        "à¦ĵà¦¯"
      ],
      [
        "à¦«",
        "à¦Ł"
      ],
      [
        "Ġà¦ħ",
        "à¦Ĺ"
      ],
      [
        "Ġà¦®",
        "à¦°"
      ],
      [
        "à¦Ł",
        "à¦¤"
      ],
      [
        "Ġà¦Ĩ",
        "à¦ĺ"
      ],
      [
        "Ġà¦ı",
        "à¦®à¦¨"
      ],
      [
        "à¦Ľ",
        "à¦¬"
      ],
      [
        "Ġà¦ĸ",
        "à¦¡"
      ],
      [
        "à¦ı",
        "à¦Ł"
      ],
      [
        "à¦²",
        "à¦ļ"
      ],
      [
        "à¦ªà¦ķ",
        "à¦¥à¦¨"
      ],
      [
        "à¦¯",
        "à¦¬à¦¯"
      ],
      [
        "Ġà¦Ĩ",
        "à¦Łà¦ķ"
      ],
      [
        "à¦¦",
        "à¦¬"
      ],
      [
        "à¦²",
        "à¦Ł"
      ],
      [
        "à¦¸",
        "à¦¨"
      ],
      [
        "à¦ĵ",
        "à¦¤"
      ],
      [
        "à¦ĩ",
        "à¦«"
      ],
      [
        "Ġà¦¡",
        "à¦ķ"
      ],
      [
        "Ġà¦ıà¦ķ",
        "à¦ĩ"
      ],
      [
        "à¦¡",
        "à¦²"
      ],
      [
        "Ġà¦Ĩ",
        "à¦¯"
      ],
      [
        "à¦ª",
        "à¦Łà¦ª"
      ],
      [
        "à¦¬",
        "à¦¡"
      ],
      [
        "à¦°",
        "à¦«"
      ],
      [
        "Ġà¦ķ",
        "à¦«"
      ],
      [
        "Ġà¦ı",
        "à¦ª"
      ],
      [
        "Ġ",
        "2"
      ],
      [
        "à¦ı",
        "à¦¶"
      ],
      [
        "Ġà¦Ĩ",
        "à¦¡"
      ],
      [
        "Ġà¦",
        "·"
      ],
      [
        "à¦¨",
        "à¦°"
      ],
      [
        "à¦¯",
        "à¦ª"
      ],
      [
        "Ġà¦Ĩà¦ĩà¦¸",
        "à¦ķ"
      ],
      [
        "Ġà¦ıà¦ķà¦¸",
        "à¦Ļ"
      ],
      [
        "à¦®",
        "à¦¤"
      ],
      [
        "Ġà¦ľ",
        "à¦Ĺ"
      ],
      [
        "à¦¯",
        "à¦¦"
      ],
      [
        "Ġà¦ı",
        "à¦¸"
      ],
      [
        "à¦¸",
        "à¦ªà¦¤"
      ],
      [
        "Ġà¦Ľ",
        "à¦¯"
      ],
      [
        "à¦Ł",
        "à¦«à¦°"
      ],
      [
        "Ġà¦Ĩ",
        "à¦¨à¦¨"
      ],
      [
        "à¦¤",
        "à¦¶"
      ],
      [
        "à¦¯",
        "à¦¯à¦¨"
      ],
      [
        "à¦ª",
        "à¦Łà¦Ń"
      ],
      [
        "à¦¹",
        "à¦¨"
      ],
      [
        "à¦¸",
        "à¦ľ"
      ],
      [
        "à¦¡",
        "à¦¬"
      ],
      [
        "à¦¥",
        "à¦²"
      ],
      [
        "à¦«",
        "à¦¬"
      ],
      [
        "à¦¤",
        "à¦®"
      ],
      [
        "Ġà¦ĺ",
        "à¦¡"
      ],
      [
        "à¦Ĺà¦²",
        "à¦¸"
      ],
      [
        "Ġà¦Ĩ",
        "à¦¶"
      ],
      [
        "à§",
        "¨"
      ],
      [
        "à¦°",
        "à¦ľ"
      ],
      [
        "à¦¶",
        "à¦ķà¦°"
      ],
      [
        "à¦ĩ",
        "à¦ľ"
      ],
      [
        "Ġà¦Ĩà¦°",
        "à¦ĵ"
      ],
      [
        "à¦Ł",
        "à¦²"
      ],
      [
        "à¦²",
        "à¦Ĺ"
      ],
      [
        "Ġà¦Ĩ",
        "à¦¬à¦°"
      ],
      [
        "à¦ļ",
        "à¦¨"
      ],
      [
        "à¦ļ",
        "à¦²"
      ],
      [
        "à§Į",
        "à¦ģ"
      ],
      [
        "Ġà¦ħà¦ªà¦°",
        "à¦ķ"
      ],
      [
        "Ġà¦ļ",
        "à¦ķ"
      ],
      [
        "à¦¸",
        "à¦¤"
      ],
      [
        "Ġà¦ı",
        "à¦ĩ"
      ],
      [
        "à¦ª",
        "à¦²"
      ],
      [
        "à¦¼à§ĩ",
        "à¥¤"
      ],
      [
        "à¦ĺ",
        "à¦²"
      ],
      [
        "Ġà¦§à¦°",
        "à¦¨"
      ],
      [
        "Ġà¦§à¦°",
        "à¦¤"
      ],
      [
        "Ġà¦ĩ",
        "à¦¨"
      ],
      [
        "à¦¦",
        "à¦®"
      ],
      [
        "Ġà¦īà¦ª",
        "à¦¸"
      ],
      [
        "Ġà¦ªà¦¥",
        "à¦ļ"
      ],
      [
        "Ĳ",
        "à¦¤"
      ],
      [
        "Ġà¦¶",
        "à¦Ł"
      ],
      [
        "Ġà§",
        "©"
      ],
      [
        "à¦¦",
        "à¦ķ"
      ],
      [
        "Ġà¦ĸ",
        "à¦¨à¦¨"
      ],
      [
        "Ġà¦Ĩà¦īà¦Ł",
        "à¦¡"
      ],
      [
        "Ġà¦²",
        "à¦Ł"
      ],
      [
        "Ġà¦§à¦°",
        "à¦£"
      ],
      [
        "à¦Ł",
        "à¦¨"
      ],
      [
        "à§İ",
        "à¦ķ"
      ],
      [
        "Ġà¦®",
        "à¦¦"
      ],
      [
        "à¦¸",
        "à¦Ł"
      ],
      [
        "Ġà¦¶",
        "à¦¹"
      ],
      [
        "Ġà¦¸",
        "à¦ķ"
      ],
      [
        "à¦ļ",
        "à¦Ł"
      ],
      [
        "Ġà§",
        "§"
      ],
      [
        "Ġà¦ĩ",
        "à¦¯"
      ],
      [
        "à¦²",
        "à¦¬"
      ],
      [
        "à¦¦",
        "à¦Ľ"
      ],
      [
        "à¦ĩ",
        "à¦ļ"
      ],
      [
        "à¦¿",
        "à¥¤"
      ],
      [
        "Ġà¦Ĺ",
        "à¦Ĺà¦²à¦¸"
      ],
      [
        "Ġà¦ĵ",
        "à¦Ń"
      ],
      [
        "à¦°",
        "à¦Ń"
      ],
      [
        "à¦ķ",
        "à¦¸"
      ],
      [
        "à¦¡",
        "à¦«"
      ],
      [
        "Ġà¦ı",
        "à¦Ĺ"
      ],
      [
        "à¦ī",
        "à¦¯"
      ],
      [
        "Ġà¦¶",
        "à¦Ļ"
      ],
      [
        "Ġà¦īà¦¦",
        "à¦¯"
      ],
      [
        "à¦§",
        "à¦¨"
      ],
      [
        "Ġà¦ªà¦°",
        "à¦¨"
      ],
      [
        "à¦Ń",
        "à¦¯"
      ],
      [
        "Ġà¦ĩ",
        "à¦²"
      ],
      [
        "à¦«",
        "à¦²"
      ],
      [
        "à¦ī",
        "à¦¬"
      ],
      [
        "Ġà¦¸",
        "à¦ľ"
      ],
      [
        "Ġà¦¤à¦°",
        "à¦Ļ"
      ],
      [
        "à¦ı",
        "à¦ĸ"
      ],
      [
        "à¦Ł",
        "à¦®"
      ],
      [
        "à¦Ĩ",
        "à¦®"
      ],
      [
        "à¦ķ",
        "à¦Ĩà¦ª"
      ],
      [
        "à¦¤",
        "à¦¨"
      ],
      [
        "Ġà¦ħ",
        "à¦¬"
      ],
      [
        "à¦®",
        "à¦ķ"
      ],
      [
        "Ġ",
        "3"
      ],
      [
        "à¦Ĺ",
        "à¦¤"
      ],
      [
        "Ġà¦¨",
        "à¦¤"
      ],
      [
        "Ġà¦Ľ",
        "à¦¡"
      ],
      [
        "Ġà¦ī",
        "à¦Ńà¦¯"
      ],
      [
        "Ġà¦Ĺ",
        "à¦°à¦®"
      ],
      [
        "Ġà¦¹",
        "à¦°"
      ],
      [
        "Ġà¦ķ",
        "à¦ķ"
      ],
      [
        "Ġà¦¨",
        "à¦¬"
      ],
      [
        "à¦°à¦®",
        "à¦£"
      ],
      [
        "à¦Ĺ",
        "à¦¬"
      ],
      [
        "à¦ĩ",
        "à¦īà¦¨"
      ],
      [
        "Ġà¦¨",
        "à¦°"
      ],
      [
        "Ġà¦Ĺ",
        "à¦Ń"
      ],
      [
        "à¦²",
        "à¦²"
      ],
      [
        "Ġà¦ķ",
        "à¦¬"
      ],
      [
        "Ġà¦ħ",
        "à¦¦"
      ],
      [
        "Ġà¦ħà¦Ĺ",
        "à¦Ń"
      ],
      [
        "à¦°",
        "à¦ĸ"
      ],
      [
        "Ġà¦ī",
        "à§İ"
      ],
      [
        "Ġà¦Ń",
        "à¦Ļ"
      ],
      [
        "Ġà¦¬à¦ĩ",
        "à¦¯"
      ],
      [
        "Ġà¦ħ",
        "à¦Ļ"
      ],
      [
        "à¦°",
        "à¦¹à¦£"
      ],
      [
        "à¦¹",
        "à¦ķ"
      ],
      [
        "à¦¬",
        "à¦§"
      ],
      [
        "Ġà¦¤",
        "à¦²"
      ],
      [
        "à¦Ń",
        "à¦¬à¦¤"
      ],
      [
        "Ġà¦¸",
        "à¦¤"
      ],
      [
        "Ġà¦²",
        "à¦ķ"
      ],
      [
        "Ġà¦²",
        "à¦Ĺ"
      ],
      [
        "Ġà¦ĸ",
        "à¦¬à¦°"
      ],
      [
        "Ġà¦ıà¦ķ",
        "à¦¤"
      ],
      [
        "Ġà¦īà¦ª",
        "à¦¹"
      ],
      [
        "Ġà¦°à¦ķ",
        "à¦®"
      ],
      [
        "à¦¸",
        "à¦ķ"
      ],
      [
        "Ġà¦¬à¦²",
        "à¦Ł"
      ],
      [
        "à¦ķ",
        "à¦¬"
      ],
      [
        "à¦²",
        "à¦ª"
      ],
      [
        "à¦¬",
        "à¦²à¦Ľ"
      ],
      [
        "à¦¶",
        "à¦Ĺ"
      ],
      [
        "à¦¸à¦°",
        "à¦£"
      ],
      [
        "Ġà¦Ĩ",
        "à¦ĩà¦Ł"
      ],
      [
        "Ġà¦¬à¦¹à¦¨",
        "à¦ķ"
      ],
      [
        "à¦¨",
        "à¦¤"
      ],
      [
        "à¦Ľ",
        "à¦¯"
      ],
      [
        "à¦²",
        "à¦ĵà¦¯"
      ],
      [
        "Ġà¦ª",
        "à¦¶"
      ],
      [
        "à¦¦",
        "à¦ªà¦¤"
      ],
      [
        "Ġà¦ıà¦ķà¦ľà¦¨",
        "à¦ķ"
      ],
      [
        "à¦Ĺ",
        "à¦¡"
      ],
      [
        "à¦²",
        "à¦¯"
      ],
      [
        "à¦²",
        "à¦Ń"
      ],
      [
        "à¦ª",
        "à¦·"
      ],
      [
        "Ġà¦ľà¦¨",
        "à¦¤"
      ],
      [
        "Ġà¦ĵ",
        "à¦ª"
      ],
      [
        "à¦°à¦ķ",
        "à¦²"
      ],
      [
        "à§Ģ",
        "-"
      ],
      [
        "à¦ľ",
        "à¦®"
      ],
      [
        "Ġà¦ľà¦²",
        "à¦ª"
      ],
      [
        "à¦°à¦«",
        "à¦°à¦®"
      ],
      [
        "à§",
        "©"
      ],
      [
        "à¦¬",
        "à¦¹"
      ],
      [
        "à¦ķ",
        "à¦Ń"
      ],
      [
        "à¦®",
        "à¦¦"
      ],
      [
        "à¦¥",
        "à¦®"
      ],
      [
        "Ġà¦ķà¦²",
        "à¦¸"
      ],
      [
        "à¦¬à¦°",
        "à¦«"
      ],
      [
        "Ġà¦«",
        "à¦¸à¦²"
      ],
      [
        "à¦ľ",
        "à¦°"
      ],
      [
        "Ġà¦®",
        "à¦²"
      ],
      [
        "à¦Ł",
        "à¦°à¦¬"
      ],
      [
        "à¦°à¦¸",
        "à¦ĵà¦¯"
      ],
      [
        "Ġà¦ļ",
        "à¦°"
      ],
      [
        "Ġ",
        "1"
      ],
      [
        "Ġà¦ķ",
        "à¦ļ"
      ],
      [
        "Ġà¦¹",
        "à¦¤"
      ],
      [
        "à¦ĩà¦²",
        "à¦ļ"
      ],
      [
        "Ġà¦ıà¦ķ",
        "à¦Ĺ"
      ],
      [
        "Ġà¦īà§İ",
        "à¦¸à¦¬"
      ],
      [
        "à¦¡",
        "à¦Ĺ"
      ],
      [
        "Ġà¦ĺ",
        "à¦¨"
      ],
      [
        "Ġà¦Ĩ",
        "à¦ķà¦°"
      ],
      [
        "Ġà¦",
        "Ĳà¦¤"
      ],
      [
        "Ġà¦ª",
        "à¦¨"
      ],
      [
        "à¦®",
        "à¦Ĺ"
      ],
      [
        "Ġà¦Ĺ",
        "à¦¤"
      ],
      [
        "à§",
        "ª"
      ],
      [
        "à¦¤",
        "à¦¤"
      ],
      [
        "Ġà¦Ł",
        "à¦¬"
      ],
      [
        "à¦ķ",
        "à¦ĵà¦¯"
      ],
      [
        "à¦¶",
        "à¦°"
      ],
      [
        "Ġà¦¬à¦²",
        "à¦ķ"
      ],
      [
        "Ġà¦Ń",
        "à¦ķ"
      ],
      [
        "à¦¤",
        "à¦ľà¦¨"
      ],
      [
        "à¦¡",
        "à¦¯"
      ],
      [
        "Ġà¦¸",
        "à¦¸"
      ],
      [
        "Ġà¦¸à¦®",
        "à¦¸"
      ],
      [
        "Ġà¦¬",
        "à¦ľ"
      ],
      [
        "à¦ļ",
        "à¦¡"
      ],
      [
        "Ġà§",
        "ª"
      ],
      [
        "à¦®",
        "à¦¸"
      ],
      [
        "Ġà¦²",
        "à¦ŀ"
      ],
      [
        "Ġà¦¤",
        "à¦ĸà¦¨"
      ],
      [
        "Ġà¦ļ",
        "à¦¤"
      ],
      [
        "à¦ľ",
        "à¦¸"
      ],
      [
        "à¦ī",
        "à¦ķ"
      ],
      [
        "Ġà¦ħ",
        "à¦§"
      ],
      [
        "à¦ī",
        "à¦¸"
      ],
      [
        "à¦Ŀ",
        "à¦°"
      ],
      [
        "à§ĩ",
        ";"
      ],
      [
        "Ġà¦®",
        "à¦¡"
      ],
      [
        "à¦Ľ",
        "à¦°"
      ],
      [
        "Ġà¦ªà¦°",
        "à¦Ľ"
      ],
      [
        "à¦Ń",
        "à¦ķ"
      ],
      [
        "à¦ı",
        "à¦°"
      ],
      [
        "à¦¤",
        "à¦Ń"
      ],
      [
        "à¦¸",
        "à¦¯"
      ],
      [
        "à¦ļ",
        "à¦°"
      ],
      [
        "à¦ł",
        "à¦¨"
      ],
      [
        "à¦¡",
        "à¦ĵà¦¯"
      ],
      [
        "Ġà¦ī",
        "à¦ĩà¦¨"
      ],
      [
        "à¦ķà¦ľà¦¨",
        "à¦ķ"
      ],
      [
        "à¦°",
        "à¦¥à¦®"
      ],
      [
        "Ġà¦ĵ",
        "à¦ľà¦¨"
      ],
      [
        "à¦¨",
        "à¦ľ"
      ],
      [
        "à¦²",
        "à¦¸"
      ],
      [
        "à¦Ń",
        "à¦²"
      ],
      [
        "Ġà¦Ĩà¦¸",
        "à¦¨"
      ],
      [
        "à¦°",
        "à¦ĵ"
      ],
      [
        "à¦²",
        "à¦ªà¦¥"
      ],
      [
        "à¦ľ",
        "à¦Ĩà¦ª"
      ],
      [
        "à§",
        "§"
      ],
      [
        "à¦ĸ",
        "à¦²"
      ],
      [
        "à¦ī",
        "à¦°"
      ],
      [
        "à¦Ĺà¦ľ",
        "à¦ªà¦¤"
      ],
      [
        "Ġà¦Ĺà¦²",
        "à¦«"
      ],
      [
        "Ġà¦ĩà¦¨",
        "à¦¡"
      ],
      [
        "à¦¤",
        "à¦Ł"
      ],
      [
        "à¦®",
        "à¦§"
      ],
      [
        "à¦ĸ",
        "à¦¡"
      ],
      [
        "à¦Ĩ",
        "à¦īà¦Ł"
      ],
      [
        "Ġà¦®",
        "à¦¸à¦ľ"
      ],
      [
        "à¦ħ",
        "à¦«"
      ],
      [
        "à¦¨",
        "à¦¸"
      ],
      [
        "à§ĭ",
        "-"
      ],
      [
        "Ġà¦ķ",
        "à¦ª"
      ],
      [
        "à¦¬",
        "à¦ĵà¦¯"
      ],
      [
        "Ġà¦¨",
        "à¦ķà¦¶"
      ],
      [
        "Ġ",
        "5"
      ],
      [
        "Ġà¦ľ",
        "à¦°"
      ],
      [
        "Ġà¦Ĩà¦¬",
        "à¦Ľ"
      ],
      [
        "à¦¨",
        "à¦ļ"
      ],
      [
        "à¦¯",
        "à¦¶"
      ],
      [
        "à¦ľ",
        "à¦Ļ"
      ],
      [
        "Ġà¦ķ",
        "à¦ł"
      ],
      [
        "à¦ĩ",
        "à¦¬"
      ],
      [
        "à¦Ń",
        "à¦¦"
      ],
      [
        "à¦°",
        "à¦§"
      ],
      [
        "à¦ķ",
        "à¦¶à¦¨"
      ],
      [
        "à¦¤à¦°",
        "à¦£"
      ],
      [
        "à¦Ł",
        "à¦Ł"
      ],
      [
        "à¦Ľ",
        "à¦²"
      ],
      [
        "Ġà¦°",
        "à¦¡"
      ],
      [
        "Ġ",
        "("
      ],
      [
        "Ġ",
        "4"
      ],
      [
        "à¦¯",
        "à¦Łà¦ķ"
      ],
      [
        "Ġà¦ķ",
        "à¦²à¦®"
      ],
      [
        "à¦ª",
        "à¦ļ"
      ],
      [
        "Ġà¦¹",
        "à¦Ł"
      ],
      [
        "Ġ",
        "-"
      ],
      [
        "à¦¡",
        "à¦®"
      ],
      [
        "à¦¯",
        "à¦¯"
      ],
      [
        "à¦Ĺ",
        "à¦Ń"
      ],
      [
        "à¦",
        "Ĳà¦¤"
      ],
      [
        "à¦ª",
        "à¦Ľ"
      ],
      [
        "Ġà¦Ĩ",
        "à¦§"
      ],
      [
        "Ġà¦ĵ",
        "à¦¡"
      ],
      [
        "à¦¹",
        "à¦¹"
      ],
      [
        "Ġà¦ľ",
        "à¦ķ"
      ],
      [
        "Ġà¦¸",
        "à¦«"
      ],
      [
        "Ġà¦¨",
        "à¦Ĺ"
      ],
      [
        "à¦ķà¦¤",
        "à¦Ĺ"
      ],
      [
        "à¦ķà¦²",
        "à¦ķà¦°"
      ],
      [
        "à¦",
        "ĥ"
      ],
      [
        "Ġà¦ª",
        "à¦¦"
      ],
      [
        "à¦·",
        "à¦¤"
      ],
      [
        "à¦¼à¦¿",
        "à¦Ĥ"
      ],
      [
        "Ġà¦Ĺ",
        "à¦¡"
      ],
      [
        "à¦¾",
        ","
      ],
      [
        "à¦°",
        "à¦ħà¦²"
      ],
      [
        "à¦ļ",
        "à¦¤"
      ],
      [
        "Ġà¦ĵ",
        "à¦ł"
      ],
      [
        "à¦¤",
        "à¦ľ"
      ],
      [
        "Ġà¦®",
        "à¦Ĺ"
      ],
      [
        "Ġà¦ī",
        "à¦Ł"
      ],
      [
        "Ġà¦ıà¦¸",
        "à¦ķ"
      ],
      [
        "à¦ª",
        "à¦ķà¦°"
      ],
      [
        "à¦¶",
        "à¦¹"
      ],
      [
        "à¦Ĺ",
        "à¦¯"
      ],
      [
        "Ġà¦¹à¦²",
        "à¦ĵà¦¯"
      ],
      [
        "à¦Ĩ",
        "à¦«"
      ],
      [
        "à¦¤",
        "à¦¦"
      ],
      [
        "à¦®",
        "à¦¶"
      ],
      [
        "à¦¨",
        "à¦Ń"
      ],
      [
        "Ġà¦¦",
        "à¦ķ"
      ],
      [
        "à¦¡",
        "à¦Ł"
      ],
      [
        "à¦¡",
        "à¦ī"
      ],
      [
        "Ġà¦«",
        "à¦°"
      ],
      [
        "à¦ĩà¦¨",
        "à¦¬"
      ],
      [
        "Ġà¦¤à¦°",
        "à¦²"
      ],
      [
        "à¦ı",
        "à¦®"
      ],
      [
        "Ġà¦Ĩà¦¬",
        "à¦¹"
      ],
      [
        "Ġà¦ļà¦ķ",
        "à¦ļà¦ķ"
      ],
      [
        "Ġà¦ıà¦ķ",
        "à¦ľ"
      ],
      [
        "à¦Ĩ",
        "à¦¨"
      ],
      [
        "à¦¡à¦ī",
        "à¦ĩà¦ļ"
      ],
      [
        "Ġà¦ıà¦ķ",
        "à¦ª"
      ],
      [
        "Ġà¦ª",
        "à¦¶à¦®"
      ],
      [
        "Ġà¦ĸ",
        "à¦°à¦Ĺ"
      ],
      [
        "à¦ī",
        "à¦ļ"
      ],
      [
        "à¦¨",
        "à¦¬à¦¨"
      ],
      [
        "Ġà¦¨à¦¬",
        "à¦¬à¦§"
      ],
      [
        "à¦¦",
        "à¦¯"
      ],
      [
        "Ġà¦§",
        "à¦¨"
      ],
      [
        "à§ĭ",
        "à¥¤"
      ],
      [
        "à¦®",
        "à¦ķà¦°"
      ],
      [
        "Ġà¦ĩ",
        "à¦ŀ"
      ],
      [
        "Ġà¦¨à¦¬",
        "à¦ľ"
      ],
      [
        "à¦Ĺ",
        "à¦ª"
      ],
      [
        "à¦«",
        "à¦ĵà¦¯"
      ],
      [
        "à¦¬à¦²",
        "à¦¨"
      ],
      [
        "à¦¬",
        "à¦¶"
      ],
      [
        "Ġà¦Ĩ",
        "à¦¦"
      ],
      [
        "Ġà¦Ĺ",
        "à¦®"
      ],
      [
        "Ġà¦ı",
        "à¦¯"
      ],
      [
        "Ġà¦ħ",
        "à¦ķ"
      ],
      [
        "à¦¨",
        "à¦¡"
      ],
      [
        "à¦®",
        "à¦Ł"
      ],
      [
        "à¦¦",
        "à¦¦"
      ],
      [
        "Ġà¦Ĩ",
        "à¦Ł"
      ],
      [
        "âĢ",
        "ĭ"
      ],
      [
        "Ġà¦ª",
        "à¦²"
      ],
      [
        "à¦Ĩ",
        "à¦²"
      ],
      [
        "Ġà¦īà¦ª",
        "à¦ķ"
      ],
      [
        "à¦¸",
        "à¦¸"
      ],
      [
        "Ġà¦ķ",
        "à¦¤"
      ],
      [
        "à¦¬",
        "à¦¹à¦¨"
      ],
      [
        "à¦²",
        "à¦Ļ"
      ],
      [
        "à¦¬",
        "à¦ļ"
      ],
      [
        "à¦ıà¦ķ",
        "à¦Ĺ"
      ],
      [
        "Ġà¦¨",
        "à¦¯"
      ],
      [
        "Ġà¦¶",
        "à¦¬"
      ],
      [
        "Ġà¦Ľ",
        "à¦¦"
      ],
      [
        "Ġà¦¹",
        "à¦¬"
      ],
      [
        "Ġà¦Ń",
        "à¦¯"
      ],
      [
        "à¦ľ",
        "à¦ķ"
      ],
      [
        "Ġà¦¦",
        "à¦²à¦ķ"
      ],
      [
        "à¦§",
        "à¦Ń"
      ],
      [
        "Ġà¦¹à¦Ł",
        "à¦¡à¦Ĺ"
      ],
      [
        "à¦ķ",
        "à¦®"
      ],
      [
        "à¦ľ",
        "à¦¯"
      ],
      [
        "à¦¬",
        "à¦Ľ"
      ],
      [
        "à¦ķà¦°",
        "à¦£"
      ],
      [
        "à§İ",
        "à¦¸"
      ],
      [
        "à¦°à¦¹",
        "à¦£à¦ķ"
      ],
      [
        "Ġà¦¸à¦«",
        "à¦Łà¦¬à¦²"
      ],
      [
        "à¦Ľ",
        "à¦¦"
      ],
      [
        "Ġà¦ıà¦ķ",
        "à¦ķ"
      ],
      [
        "à¦¼à¦¿",
        "à¥¤"
      ],
      [
        "Ġà¦Ĺ",
        "à¦¨"
      ],
      [
        "à§ģ",
        "à¥¤"
      ],
      [
        "Ġà¦ª",
        "à¦ķ"
      ],
      [
        "à¦¸",
        "à¦¹"
      ],
      [
        "à¦¸",
        "à¦«"
      ],
      [
        "Ġà¦Ĩ",
        "à¦ªà¦¨"
      ],
      [
        "Ġà¦°",
        "à¦¸"
      ],
      [
        "à¦ĩ",
        "à¦ªà¦¡"
      ],
      [
        "Ġà¦ī",
        "à¦·"
      ],
      [
        "à¦¨",
        "à¦¹"
      ],
      [
        "à¦£",
        "à¦Ń"
      ],
      [
        "à¦¬à¦ķ",
        "à¦°"
      ],
      [
        "Ġà¦ħà¦¬",
        "à¦¤à¦°à¦£"
      ],
      [
        "Ġ",
        ","
      ],
      [
        "à¦¬",
        "à¦ķà¦Ł"
      ],
      [
        "Ġà¦®",
        "à¦ĩ"
      ],
      [
        "à¦·",
        "à¦¯"
      ],
      [
        "Ġà¦¶",
        "à¦¸"
      ],
      [
        "à¦Ń",
        "à¦¬à¦¨"
      ],
      [
        "Ġà¦ħà¦²",
        "à¦Ļ"
      ],
      [
        "à¦ı",
        "à¦¸"
      ],
      [
        "à¦Ĩ",
        "à¦°"
      ],
      [
        "à§ĩ",
        "-"
      ],
      [
        "à¦ª",
        "à¦ª"
      ],
      [
        "à¦ħ",
        "à¦¸"
      ],
      [
        "à¦¤",
        "à¦ª"
      ],
      [
        "à¦®",
        "à¦ľ"
      ],
      [
        "Ġà¦ı",
        "à¦¡"
      ],
      [
        "Ġà¦Ł",
        "à¦®"
      ],
      [
        "Ġ",
        "'"
      ],
      [
        "Ġà¦Ĩ",
        "à¦ĩà¦²"
      ],
      [
        "Ġà¦ħ",
        "à¦Ł"
      ],
      [
        "Ġà¦ľà¦¨",
        "à¦¸à¦®"
      ],
      [
        "Ġà¦¦à¦®",
        "à¦ķà¦²à¦ķà¦°"
      ],
      [
        "à§",
        "«"
      ],
      [
        "à¦¹",
        "à¦¤"
      ],
      [
        "à¦ī",
        "à¦²"
      ],
      [
        "Ġà¦¡",
        "à¦Ł"
      ],
      [
        "à¦°à¦ķ",
        "à¦®"
      ],
      [
        "à¦°",
        "à¦ķà¦°"
      ],
      [
        "à¦¿",
        ","
      ],
      [
        "à¦²",
        "à¦°à¦ķ"
      ],
      [
        "à¦ıà¦ķ",
        "à¦¸"
      ],
      [
        "à¦¶",
        "à¦Ł"
      ],
      [
        "à¦²",
        "à¦¡"
      ],
      [
        "à¦·",
        "à¦Ĺ"
      ],
      [
        "Ġà¦Ĺ",
        "à¦łà¦¨"
      ],
      [
        "à¦¸à¦¬",
        "à¦ľ"
      ],
      [
        "à¦¯à¦Ł",
        "à¦ķà¦°"
      ],
      [
        "Ġà¦ķ",
        "à¦Ń"
      ],
      [
        "Ġà¦Ĺ",
        "à¦¯"
      ],
      [
        "à¦ª",
        "à¦Ł"
      ],
      [
        "Ġà¦¤",
        "à¦°à¦®"
      ],
      [
        "Ġà¦¸à¦¹",
        "à¦ķ"
      ],
      [
        "Ġà¦īà¦ł",
        "à¦¤"
      ],
      [
        "à¦Ł",
        "à¦ĵà¦¯"
      ],
      [
        "à¦¶",
        "à¦¦"
      ],
      [
        "Ġà¦ļ",
        "à¦²à¦¨"
      ],
      [
        "Ġà¦¸à¦®",
        "à¦°"
      ],
      [
        "Ġà¦¬",
        "à¦Ľà¦°"
      ],
      [
        "à¦¡",
        "à¦²à¦ķ"
      ],
      [
        "Ġà¦Ĩ",
        "à¦¸à¦¬"
      ],
      [
        "Ġà¦¹",
        "à¦¨"
      ],
      [
        "à¦ĸ",
        "à¦£"
      ],
      [
        "Ġà¦ĩ",
        "à¦¸"
      ],
      [
        "à¦¬à¦ķ",
        "à¦ķ"
      ],
      [
        "à§Ģ",
        "à¥¤"
      ],
      [
        "Ġà¦ľà¦²",
        "à¦ĸ"
      ],
      [
        "à¦ª",
        "à¦£"
      ],
      [
        "à¦«",
        "à¦¸à¦²"
      ],
      [
        "Ġà§",
        "«"
      ],
      [
        "Ġà¦ķ",
        "à¦¸"
      ],
      [
        "Ġà¦¸",
        "à¦¤à¦°"
      ],
      [
        "à¦¹",
        "à¦ķà¦¦"
      ],
      [
        "Ġà¦ī",
        "à¦¨"
      ],
      [
        "à¦ĵ",
        "à¦Ń"
      ],
      [
        "à¦ķ",
        "à¦¦à¦²"
      ],
      [
        "à¦ķ",
        "à¦Ĩà¦īà¦Ł"
      ],
      [
        "Ġà¦ıà¦ķ",
        "à¦°à¦ķà¦®"
      ],
      [
        "à¦¬",
        "à¦¬"
      ],
      [
        "Ġà¦ļ",
        "à¦ķà¦²"
      ],
      [
        "à¦ī",
        "à¦¡"
      ],
      [
        "à¦ªà¦¥",
        "à¦ļ"
      ],
      [
        "à¦¶",
        "à¦«"
      ],
      [
        "à¦·",
        "à¦Ľ"
      ],
      [
        "à¦ī",
        "à¦ªà¦°"
      ],
      [
        "à¦ī",
        "à¦ŀ"
      ],
      [
        "à¦¬à¦ķ",
        "à¦¦"
      ],
      [
        "à¦¦à¦°",
        "à¦ľ"
      ],
      [
        "Ġà¦ķà¦¨",
        "à¦«"
      ],
      [
        "Ġà¦ķ",
        "à¦·"
      ],
      [
        "Ġà¦¦",
        "à¦ĸà¦²"
      ],
      [
        "à¦¡",
        "à¦¨"
      ],
      [
        "à¦ª",
        "à¦¶à¦¨"
      ],
      [
        "à¦ĩ",
        "à¦¤"
      ],
      [
        "à¦Ĺ",
        "à¦®"
      ],
      [
        "Ġà¦Ł",
        "à¦°"
      ],
      [
        "Ġà¦Ł",
        "à¦¯"
      ],
      [
        "à¦ī",
        "à¦¤"
      ],
      [
        "Ġ",
        "6"
      ],
      [
        "Ġà¦ª",
        "à¦¯"
      ],
      [
        "à¦ľ",
        "à¦¹"
      ],
      [
        "à¦¬",
        "à¦ªà¦¤"
      ],
      [
        "à¦ľà¦¨",
        "à¦ķ"
      ],
      [
        "Ġà¦¨",
        "à¦ĸ"
      ],
      [
        "Ġà¦¶",
        "à¦°à¦¤"
      ],
      [
        "à¦Ĩ",
        "à¦Ĺ"
      ],
      [
        "à¦¡",
        "à¦¡"
      ],
      [
        "à¦ıà¦ķ",
        "à¦ĩ"
      ],
      [
        "Ġà¦ªà¦°",
        "à¦ļ"
      ],
      [
        "Ġà¦¨",
        "à¦²"
      ],
      [
        "Ġà¦¨",
        "à¦¡"
      ],
      [
        "à¦ĩà¦ķ",
        "à¦Ł"
      ],
      [
        "Ġà¦ĩ",
        "à¦Ļ"
      ],
      [
        "Ġà¦¨",
        "à¦ķà¦²"
      ],
      [
        "Ġà¦ı",
        "à¦¨"
      ],
      [
        "Ġà¦ħ",
        "à¦ŀ"
      ],
      [
        "à¦ł",
        "à¦Ń"
      ],
      [
        "Ġà¦¸à¦¹",
        "à¦ķà¦°"
      ],
      [
        "à¦ĩà¦¨",
        "à¦¸"
      ],
      [
        "à¦¸à¦®",
        "à¦¸"
      ],
      [
        "à¦Ĺà¦Ń",
        "à¦Ļ"
      ],
      [
        "Ġà¦ķà¦¤",
        "à¦Ĺ"
      ],
      [
        "à¦®",
        "à¦®à¦¨"
      ],
      [
        "Ġà¦ªà¦°",
        "à¦¬à¦°"
      ],
      [
        "Ġà¦ļ",
        "à¦²à¦®"
      ],
      [
        "à¦«",
        "à¦ķ"
      ],
      [
        "Ġà¦Łà¦ª",
        "à¦¸"
      ],
      [
        "à§İ",
        "à¦ª"
      ],
      [
        "Ġà¦¸",
        "à¦®à¦¨"
      ],
      [
        "à¦®",
        "à¦¸à¦ľ"
      ],
      [
        "à¦¶",
        "à¦ª"
      ],
      [
        "à¦ĩ",
        "à¦ĵà¦¯"
      ],
      [
        "à§İ",
        "à¦ľ"
      ],
      [
        "Ġà¦ļà¦ķ",
        "à¦¬"
      ],
      [
        "Ġà¦ħ",
        "à¦¡"
      ],
      [
        "0",
        "1"
      ],
      [
        "Ġà¦ª",
        "à¦¦à¦ķ"
      ],
      [
        "à¦¹",
        "à¦¸"
      ],
      [
        "à¦«",
        "à¦²à¦¨"
      ],
      [
        "à¦ı",
        "à¦²"
      ],
      [
        "à¦¤à¦¶",
        "à¦¬"
      ],
      [
        "Ġà¦®",
        "à¦¸"
      ],
      [
        "à¦ª",
        "à¦Ŀ"
      ],
      [
        "Ġà¦°",
        "à¦¶"
      ],
      [
        "Ġà¦Ĺ",
        "à¦¬"
      ],
      [
        "à¦ĵ",
        "à¦²"
      ],
      [
        "Ġà¦īà¦ª",
        "à¦¬"
      ],
      [
        "à¦ķ",
        "à¦ļ"
      ],
      [
        "à¦¡",
        "à¦°"
      ],
      [
        "Ġà¦¤",
        "à¦ķ"
      ],
      [
        "à¦£",
        "à¦°"
      ],
      [
        "à§",
        "¬"
      ],
      [
        "à¦ª",
        "à¦¦"
      ],
      [
        "Ġà¦¬à¦²",
        "à¦¤"
      ],
      [
        "à¦ħ",
        "à¦Ń"
      ],
      [
        "à¦²",
        "à¦¥"
      ],
      [
        "Ġà¦¤",
        "à¦¥"
      ],
      [
        "Ġà¦ī",
        "à¦²à¦ķ"
      ],
      [
        "Ġà¦ī",
        "à¦ªà¦¤"
      ],
      [
        "Ġà¦Ŀ",
        "à¦Ĺà¦¡"
      ],
      [
        "à¦ĩà¦¨",
        "à¦ķ"
      ],
      [
        "à¦ĩà¦²",
        "à¦¸"
      ],
      [
        "à¦Ł",
        "à¦Ĺ"
      ],
      [
        "à¦²",
        "à¦ķà¦°"
      ],
      [
        "Ġà¦ıà¦ķ",
        "à¦¦"
      ],
      [
        "à¦Ĺ",
        "à¦Ł"
      ],
      [
        "Ġà¦¡",
        "à¦Ĺ"
      ],
      [
        "à¦²",
        "à¦ľ"
      ],
      [
        "Ġà¦Ĩ",
        "à¦¤à¦¶à¦¬"
      ],
      [
        "à¦¥",
        "à¦Ł"
      ],
      [
        "à¦§",
        "à¦Ľ"
      ],
      [
        "Ġà¦Ŀ",
        "à¦°à¦¨"
      ],
      [
        "Ġà¦ķà¦²",
        "à¦¶"
      ],
      [
        "à¦°à¦¶",
        "à¦¸"
      ],
      [
        "Ġà¦¬",
        "à¦Ĺ"
      ],
      [
        "à¦¬",
        "à¦ª"
      ],
      [
        "Ġà¦¸",
        "à¦¦"
      ],
      [
        "Ġà¦Ĩ",
        "à¦¬à¦¦"
      ],
      [
        "à¦Ĺ",
        "à¦Ĺà¦²à¦¸"
      ],
      [
        "Ġà¦ħ",
        "à¦ľ"
      ],
      [
        "à¦Ĺà¦²",
        "à¦¯"
      ],
      [
        "à¦¬",
        "à¦ĩ"
      ],
      [
        "Ġà¦ľ",
        "à¦¯"
      ],
      [
        "à¦Ĩ",
        "à¦Ł"
      ],
      [
        "Ġà¦ª",
        "à¦ª"
      ],
      [
        "Ġà¦®",
        "à¦¶"
      ],
      [
        "Ġà¦Ĩ",
        "à¦¦à¦°"
      ],
      [
        "à¦¹",
        "à§İ"
      ],
      [
        "à¦·",
        "à¦ľà¦¨"
      ],
      [
        "Ġà¦Ĺ",
        "à¦£"
      ],
      [
        "Ġà¦¸à¦®",
        "à¦¤à¦²"
      ],
      [
        "à¦¨à¦ľ",
        "à¦Ł"
      ],
      [
        "à¦Ľ",
        "à¦Ĺ"
      ],
      [
        "à¦¸",
        "à¦¦"
      ],
      [
        "à¦¸",
        "à¦Ĺ"
      ],
      [
        "à¦ª",
        "à¦Łà¦²"
      ],
      [
        "à¦Ĺ",
        "à¦ĩ"
      ],
      [
        "Ġà¦ī",
        "à¦°"
      ],
      [
        "Ġà¦īà¦ª",
        "à¦ľ"
      ],
      [
        "Ġà¦ķ",
        "à¦¨à¦Ł"
      ],
      [
        "Ġà¦®",
        "à¦ª"
      ],
      [
        "à¦ª",
        "à¦ŀ"
      ],
      [
        "à¦ĩ",
        "à¦ī"
      ],
      [
        "Ġà¦¤",
        "à¦¤"
      ],
      [
        "Ġà¦ı",
        "à¦ĸà¦¨"
      ],
      [
        "Ġà¦¯",
        "à¦¤"
      ],
      [
        "Ġà¦ĩ",
        "à¦īà¦°"
      ],
      [
        "Ġà¦¸à¦°",
        "à¦¬à¦°"
      ],
      [
        "Ġà¦ķà¦¨",
        "à¦Ń"
      ],
      [
        "0",
        "0"
      ],
      [
        "Ġ",
        "âĢĭ"
      ],
      [
        "à¦°",
        "à¦ĩ"
      ],
      [
        "à¦Ľ",
        "à¦Ľ"
      ],
      [
        "à¦ª",
        "à¦¶"
      ],
      [
        "à§Ģ",
        ","
      ],
      [
        "à¦Ĺ",
        "à¦£"
      ],
      [
        "Ġà¦ĩ",
        "à¦¤"
      ],
      [
        "à¦ĩà¦²",
        "à¦Ł"
      ],
      [
        "ĠâĢĭ",
        "âĢĭ"
      ],
      [
        "à¦¿",
        "à¦ĥ"
      ],
      [
        "à¦ķ",
        "à¦¹"
      ],
      [
        "à¦ķ",
        "à¦¸à¦¬à¦ľ"
      ],
      [
        "à¦¥",
        "à¦ķ"
      ],
      [
        "à¦¥",
        "à¦¬"
      ],
      [
        "à¦«",
        "à¦¡"
      ],
      [
        "à¦§",
        "à¦¬"
      ],
      [
        "à¦ĵ",
        "à¦¡"
      ],
      [
        "Ġà¦Ŀ",
        "à¦°à¦Ľ"
      ],
      [
        "à¦ı",
        "à¦ª"
      ],
      [
        "à¦¯",
        "à¦¤"
      ],
      [
        "à¦·",
        "à¦ª"
      ],
      [
        "à¦¿à¦Ĥ",
        "-"
      ],
      [
        "Ġà¦Ĩà¦°",
        "à¦¬"
      ],
      [
        "à¦°à¦¤",
        "à¦²"
      ],
      [
        "à¦ĩà¦Ń",
        "à¦ĵà¦¯"
      ],
      [
        "à¦°",
        "à¦ĵà¦¯"
      ],
      [
        "à§ģ",
        "-"
      ],
      [
        "à¦¸",
        "à¦ĵà¦¯"
      ],
      [
        "Ġà¦ħ",
        "à¦¸à¦®"
      ],
      [
        "Ġà¦ī",
        "à¦ĩ"
      ],
      [
        "Ġà¦¬à¦¨",
        "à¦Ń"
      ],
      [
        "Ġà¦Łà¦ª",
        "à¦²"
      ],
      [
        "à¦ķà¦¶",
        "à¦ª"
      ],
      [
        "01",
        "2"
      ],
      [
        "à¦ķ",
        "à¦¬à¦ķ"
      ],
      [
        "à¦²",
        "à¦¦"
      ],
      [
        "à§ģ",
        ","
      ],
      [
        "à¦¸",
        "à¦Ļ"
      ],
      [
        "Ġà¦²",
        "à¦¤"
      ],
      [
        "Ġà¦Ĩà¦Ľ",
        "à¦¡"
      ],
      [
        "Ġà¦¶",
        "à¦¤"
      ],
      [
        "Ġà¦Ĺ",
        "à¦ł"
      ],
      [
        "Ġà¦ħ",
        "à¦¶"
      ],
      [
        "à¦ī",
        "à¦ł"
      ],
      [
        "à¦ĵ",
        "à¦°"
      ],
      [
        "Ġà¦Ŀ",
        "à¦¡"
      ],
      [
        "à¦ĺ",
        "à¦Łà¦¨"
      ],
      [
        "Ġà¦¦à¦²",
        "à¦Ł"
      ],
      [
        "Ġà¦ľà¦¨à¦¸à¦®",
        "à¦ķ"
      ],
      [
        "Ġà¦¬",
        "à¦Ł"
      ],
      [
        "à¦¡",
        "à¦ķ"
      ],
      [
        "Ġà¦Ĩ",
        "à¦¹à¦¤"
      ],
      [
        "Ġà¦ı",
        "à¦ĩà¦®"
      ],
      [
        "Ġà¦ī",
        "à¦¤à¦°"
      ],
      [
        "à¦ħ",
        "à¦Ĺ"
      ],
      [
        "à¦¡à¦²",
        "à¦¸"
      ],
      [
        "à¦¨",
        "à¦ĵà¦¯"
      ],
      [
        "Ġà¦²",
        "à¦£"
      ],
      [
        "Ġà¦ĩ",
        "à¦ī"
      ],
      [
        "à¦ħ",
        "à¦¦"
      ],
      [
        "Ġà¦¦",
        "à¦£"
      ],
      [
        "Ġà¦ļ",
        "à¦ªà¦¸"
      ],
      [
        "Ġà¦ĺ",
        "à¦Łà¦¨"
      ],
      [
        "Ġà¦¡",
        "à¦²"
      ],
      [
        "Ġà¦ı",
        "à¦ĸ"
      ],
      [
        "à¦¼à¦¾",
        "à¥¤"
      ],
      [
        "Ġà¦ĸ",
        "à¦¯"
      ],
      [
        "à¦§",
        "à¦°à¦¨"
      ],
      [
        "Ġà¦ħà¦¨",
        "à¦¨"
      ],
      [
        "Ġà¦ĵ",
        "à¦°"
      ],
      [
        "Ġà¦¸à¦¬",
        "à¦ļ"
      ],
      [
        "Ġà¦ĩ",
        "à¦ľ"
      ],
      [
        "à¦Ĩ",
        "à¦¯"
      ],
      [
        "à¦ķà¦¨",
        "à¦¸"
      ],
      [
        "à¦¨",
        "à¦ª"
      ],
      [
        "à¦²",
        "à¦°"
      ],
      [
        "à§ģ",
        "à¦ĥ"
      ],
      [
        "à¦Ľ",
        "à¦ķ"
      ],
      [
        "à¦¼à§ĩ",
        ","
      ],
      [
        "à¦ª",
        "à¦ľ"
      ],
      [
        "à¦¶",
        "à¦ªà¦¥"
      ],
      [
        "Ġà¦¨",
        "à¦ľà¦°"
      ],
      [
        "Ġà¦ı",
        "à¦¦"
      ],
      [
        "Ġà¦ľ",
        "à¦Ł"
      ],
      [
        "Ġà¦ī",
        "à¦ķ"
      ],
      [
        "à¦ł",
        "à¦¬"
      ],
      [
        "à¦Ń",
        "à¦°"
      ],
      [
        "à¦ĵ",
        "à¦¨"
      ],
      [
        "Ġà¦ĩ",
        "à¦®"
      ],
      [
        "à¦°à¦®",
        "à¦£à¦ķ"
      ],
      [
        "Ġà¦Ĩà¦Ł",
        "à¦ľà¦¨"
      ],
      [
        "Ġà¦",
        "Ī"
      ],
      [
        "à¦¨",
        "à¦¶"
      ],
      [
        "à¦¨",
        "à¦ĵ"
      ],
      [
        "Ġà¦ª",
        "à¦Ľà¦¨"
      ],
      [
        "Ġà¦¬",
        "à¦Łà¦®"
      ],
      [
        "à¦ľ",
        "à¦¸à¦ľ"
      ],
      [
        "Ġà¦Ĩ",
        "à¦¨à¦Ľ"
      ],
      [
        "à¦Ĺ",
        "à¦°à¦®"
      ],
      [
        "Ġà¦ī",
        "à¦°à¦¨"
      ],
      [
        "à¦Ĩ",
        "à¦¶"
      ],
      [
        "à¦Ĩ",
        "à¦ĩà¦¸"
      ],
      [
        "à¦¯à¦Ł",
        "à¦¨"
      ],
      [
        "Ġà¦Ĩà¦¨",
        "à¦²"
      ],
      [
        "à¦Ľ",
        "à¦Ł"
      ],
      [
        "Ġà¦ıà¦ķ",
        "à¦§à¦°à¦¨"
      ],
      [
        "à¦ľ",
        "à¦Ĺ"
      ],
      [
        "à¦¬",
        "à¦Ł"
      ],
      [
        "Ġà¦¸",
        "à¦¡"
      ],
      [
        "Ġà¦¸",
        "à¦Ń"
      ],
      [
        "à¦ª",
        "à¦¬"
      ],
      [
        "Ġà¦Ĺ",
        "à¦¹à¦¨"
      ],
      [
        "à¦¯à¦ķ",
        "à¦°"
      ],
      [
        "à¦¯à¦ķ",
        "à¦²"
      ],
      [
        "à¦ī",
        "à¦®"
      ],
      [
        "à¦Ŀ",
        "à¦¡"
      ],
      [
        "à¦ĩà¦Ł",
        "à¦ķ"
      ],
      [
        "à¦°",
        "à¦¹à¦°"
      ],
      [
        "à¦®",
        "à¦°à¦¤"
      ],
      [
        "Ġà¦ı",
        "à¦¤"
      ],
      [
        "à¦Ĺ",
        "à¦Ľ"
      ],
      [
        "Ġà¦ĸ",
        "à¦ļ"
      ],
      [
        "Ġà¦¡",
        "à¦ľà¦¨"
      ],
      [
        "Ġà¦ľà¦²",
        "à¦ªà¦¥"
      ],
      [
        "à¦Ĩ",
        "à¦¬à¦°"
      ],
      [
        "Ġà¦īà¦ª",
        "à¦¡"
      ],
      [
        "à¦¯à¦Ł",
        "à¦ķà¦¦"
      ],
      [
        "Ġà¦ª",
        "à¦Ļ"
      ],
      [
        "à¦ıà¦ķ",
        "à¦ľ"
      ],
      [
        "à¦¦",
        "à¦Ł"
      ],
      [
        "à¦¶",
        "à¦ľà¦¨"
      ],
      [
        "Ġà¦²",
        "à¦¬"
      ],
      [
        "à¦§",
        "à¦°"
      ],
      [
        "à¦ĩà¦¡",
        "à¦²"
      ],
      [
        "Ġà¦Ĩà¦®",
        "à¦°"
      ],
      [
        "à¦ĩà¦®",
        "à¦¸"
      ],
      [
        "à¦ıà¦®",
        "à¦ıà¦ķ"
      ],
      [
        "į",
        "à§į"
      ],
      [
        "à¦²",
        "à¦ķà¦Ł"
      ],
      [
        "à¦¸",
        "à¦¡"
      ],
      [
        "à¦¡",
        "à¦¹"
      ],
      [
        "Ġà¦¸",
        "à¦ŀ"
      ],
      [
        "à¦¦",
        "à¦¡"
      ],
      [
        "à¦ª",
        "à¦Ĺ"
      ],
      [
        "à¦ĸ",
        "à¦ķ"
      ],
      [
        "à¦£",
        "à¦¬à¦¨"
      ],
      [
        "à¦ł",
        "à¦ª"
      ],
      [
        "Ġà¦ľà¦¨",
        "à¦¸"
      ],
      [
        "à¦Ŀ",
        "à¦ķ"
      ],
      [
        "âĢ",
        "įà§į"
      ],
      [
        "Ġ",
        "9"
      ],
      [
        "à¦ķ",
        "à¦«"
      ],
      [
        "à¦¯",
        "à¦¥"
      ],
      [
        "à¦¼",
        "-"
      ],
      [
        "à¦®",
        "à§İà¦ķ"
      ],
      [
        "Ġà¦Ĩ",
        "à¦¤"
      ],
      [
        "Ġà¦¡",
        "à¦²à¦«"
      ],
      [
        "Ġà¦ķà¦®",
        "à¦ª"
      ],
      [
        "à¦Łà¦°",
        "à¦ļ"
      ],
      [
        "à¦ľà¦²",
        "à¦ª"
      ],
      [
        "à¦Ĩà¦Ł",
        "à¦ľà¦¨"
      ],
      [
        "à¦°",
        "à¦¡"
      ],
      [
        "Ġà¦ķ",
        "à¦¡"
      ],
      [
        "à¦·",
        "à¦®"
      ],
      [
        "Ġà¦ļ",
        "à¦ĵà¦¡"
      ],
      [
        "Ġà¦Ł",
        "à¦¹à¦²"
      ],
      [
        "à¦§",
        "à¦¤"
      ],
      [
        "Ġà¦«",
        "à¦¡"
      ],
      [
        "à¦²à¦ķ",
        "à¦ķ"
      ],
      [
        "Ġà¦¤à¦°",
        "à¦ķ"
      ],
      [
        "à¦ı",
        "à¦¯"
      ],
      [
        "Ġà¦īà¦ª",
        "à¦ķà¦°à¦£"
      ],
      [
        "à¦¬à¦¦",
        "à¦®"
      ],
      [
        "à¦¦à¦®",
        "à¦ķà¦²à¦ķà¦°"
      ],
      [
        "Ġà¦ıà¦ĸà¦¨",
        "à¦ĵ"
      ],
      [
        "Ġ",
        "7"
      ],
      [
        "à¦Ł",
        "à¦«"
      ],
      [
        "à¦²",
        "à¦ŀ"
      ],
      [
        "à¦¼",
        "à§į"
      ],
      [
        "Ġà¦¸",
        "à¦ķà¦²"
      ],
      [
        "à¦ª",
        "à¦¯"
      ],
      [
        "Ġà¦ļ",
        "à¦®à§İà¦ķ"
      ],
      [
        "Ġà¦Ń",
        "à¦°à¦Ľ"
      ],
      [
        "à¦Ń",
        "à¦¬"
      ],
      [
        "Ġà¦¥",
        "à¦²"
      ],
      [
        "à¦ī",
        "à¦ĩà¦¯"
      ],
      [
        "Ġà¦ĩ",
        "à¦īà¦Ł"
      ],
      [
        "Ġà¦ľà¦²",
        "à¦¦à¦¸"
      ],
      [
        "Ġà¦īà¦²",
        "à¦Ł"
      ],
      [
        "Ġà¦¶à¦¹",
        "à¦°à¦¤à¦²"
      ],
      [
        "à¦°",
        "à¦®à¦¨"
      ],
      [
        "à¦ľ",
        "à¦ª"
      ],
      [
        "Ġà¦ķà¦°",
        "à¦¬"
      ],
      [
        "à¦ł",
        "à¦ķ"
      ],
      [
        "Ġà¦ħà¦²",
        "à¦¸"
      ],
      [
        "à¦¬à¦¤",
        "à¦®"
      ],
      [
        "Ġà§",
        "¬"
      ],
      [
        "à¦¯à¦ľà¦¨",
        "à¦ķ"
      ],
      [
        "Ġ2",
        "012"
      ],
      [
        "à¦¨",
        "à¦°à¦ķ"
      ],
      [
        "à§ĭ",
        ","
      ],
      [
        "Ġà¦¦",
        "à¦¸"
      ],
      [
        "à¦¶",
        "à¦ļ"
      ],
      [
        "à¦Ĺ",
        "à¦¦"
      ],
      [
        "Ġà¦īà§İ",
        "à¦¸"
      ],
      [
        "à¦ĩà¦ī",
        "à¦Ń"
      ],
      [
        "Ġ",
        "8"
      ],
      [
        "à§ĩ",
        "!"
      ],
      [
        "à¦Ł",
        "à¦ľ"
      ],
      [
        "à¦Ł",
        "à¦¹"
      ],
      [
        "à¦ľ",
        "à¦¬"
      ],
      [
        "Ġà¦Ĩ",
        "à¦Ń"
      ],
      [
        "à¦¶",
        "à¦¸"
      ],
      [
        "à¦¹",
        "à¦ķà¦°"
      ],
      [
        "à¦·",
        "à¦ķà¦°"
      ],
      [
        "à¦ĩ",
        "à¦Ĺ"
      ],
      [
        "Ġà¦¯",
        "à¦¦"
      ],
      [
        "à¦Ĺ",
        "à¦ķ"
      ],
      [
        "à¦£",
        "à¦¦"
      ],
      [
        "Ġà¦ĩ",
        "à¦¹"
      ],
      [
        "Ġà¦Ńà¦¬à¦¨",
        "à¦Ĺ"
      ],
      [
        "à¦¬à¦¸",
        "à¦¤"
      ],
      [
        "à¦ľà¦²",
        "à¦¦à¦¸"
      ],
      [
        "Ġà¦ıà¦¸",
        "à¦ĩà¦īà¦Ń"
      ],
      [
        "Ġà¦Ī",
        "à¦Ĺà¦²"
      ],
      [
        "à¦°",
        "à¦·"
      ],
      [
        "à¦°",
        "à¦¬à¦°"
      ],
      [
        "à¦ľ",
        "à¦¤"
      ],
      [
        "à¦¸",
        "à¦ķà¦Ł"
      ],
      [
        "Ġà¦¦",
        "à¦¶à¦ķ"
      ],
      [
        "Ġà¦®",
        "à¦ĩà¦¯"
      ],
      [
        "à¦ļ",
        "à¦¸"
      ],
      [
        "à¦ª",
        "à¦ķà¦²"
      ],
      [
        "Ġà¦¯",
        "à¦®à¦ľ"
      ],
      [
        "Ġà¦ļ",
        "à¦°à¦®"
      ],
      [
        "Ġà¦«",
        "à¦£"
      ],
      [
        "à¦£",
        "à¦¸"
      ],
      [
        "Ġà¦ĺ",
        "à¦·"
      ],
      [
        "à¦ī",
        "à§İ"
      ],
      [
        "à¦ĩà¦¨",
        "à¦Ĺ"
      ],
      [
        "à¦¤à¦°",
        "à¦Ļ"
      ],
      [
        "Ġà¦ĺà¦°",
        "à¦¬"
      ],
      [
        "à¦°à¦¬",
        "à¦£"
      ],
      [
        "à¦¦à¦¨",
        "à¦ķ"
      ],
      [
        "à¦ĩà¦ľ",
        "à¦¡"
      ],
      [
        "Ġà¦ķà¦¬",
        "à¦°à¦¸"
      ],
      [
        "à¦ıà¦¸",
        "à¦ı"
      ],
      [
        ".",
        "."
      ],
      [
        "Ġ",
        "âĢ"
      ],
      [
        "à¦°",
        "à¦¥"
      ],
      [
        "à¦ķ",
        "à¦¸à¦ľ"
      ],
      [
        "à¦ľ",
        "à¦Ł"
      ],
      [
        "Ġà¦ķ",
        "à¦Ļ"
      ],
      [
        "Ġà¦ķ",
        "à¦¬à¦°"
      ],
      [
        "Ġà¦®",
        "à¦Łà¦°"
      ],
      [
        "Ġà¦¸",
        "à¦ł"
      ],
      [
        "à¦ıà¦ķ",
        "à¦ª"
      ],
      [
        "à¦¶",
        "à¦¬"
      ],
      [
        "Ġà¦²",
        "à¦²"
      ],
      [
        "Ġà¦ı",
        "à¦²à¦®"
      ],
      [
        "à¦Ĺ",
        "à¦ĵà¦¯"
      ],
      [
        "Ġà¦ħ",
        "à¦¬à¦¯"
      ],
      [
        "à¦ī",
        "à¦¦"
      ],
      [
        "à¦ī",
        "à¦·"
      ],
      [
        "à¦ī",
        "à¦Ĺ"
      ],
      [
        "à¦Łà¦¬à¦²",
        "à¦ķ"
      ],
      [
        "à¦ħ",
        "à¦°"
      ],
      [
        "à¦ı",
        "à¦¨"
      ],
      [
        "à¦Ĩ",
        "à¦¡"
      ],
      [
        "à¦¼à§Ģ",
        "à¥¤"
      ],
      [
        "à¦Ł",
        "à¦¦"
      ],
      [
        "Ġà¦ķ",
        "à¦£"
      ],
      [
        "à¦¤",
        "à¦Ĺ"
      ],
      [
        "à¦ĩ",
        "à¦īà¦°"
      ],
      [
        "Ġà¦¨",
        "à¦®à¦¨"
      ],
      [
        "Ġà¦Ĺ",
        "à¦¦"
      ],
      [
        "Ġà¦®à¦¹",
        "à¦¡"
      ],
      [
        "Ġà¦ĺ",
        "à¦Łà¦Ľ"
      ],
      [
        "à¦¦à¦°",
        "à¦Ń"
      ],
      [
        "à¦Ĩ",
        "à¦¬à¦Ľ"
      ],
      [
        "à¦¼à§ĭ",
        "-"
      ],
      [
        "à¦ªà¦¨",
        "à¦¸à¦°"
      ],
      [
        "à¦°à¦ĵ",
        "à¦²"
      ],
      [
        "à¦¯",
        "à¦Ĺ"
      ],
      [
        "à¦¯",
        "à¦Ļ"
      ],
      [
        "à¦¯",
        "à¦°à¦¤"
      ],
      [
        "à¦ļ",
        "à¦ĵà¦¯"
      ],
      [
        "Ġà¦ı",
        "à¦®"
      ],
      [
        "à¦¥",
        "à¦Ĺ"
      ],
      [
        "Ġà¦Ł",
        "à¦ķ"
      ],
      [
        "à¦Ŀ",
        "à¦¬à¦¯"
      ],
      [
        "à¦īà¦¨",
        "à¦Ł"
      ],
      [
        "Ġà¦ľà¦²",
        "à¦°"
      ],
      [
        "à¦ĺ",
        "à¦Ł"
      ],
      [
        "à¦ķà¦¤",
        "à¦ķà¦Ĺ"
      ],
      [
        "Ġà¦¶à¦°",
        "à§İà¦ķ"
      ],
      [
        "âĢ",
        "Ļ"
      ],
      [
        "à¦¨",
        "à¦°à¦¤"
      ],
      [
        "à¦Ł",
        "à¦¯"
      ],
      [
        "à¦¯",
        "à¦ľ"
      ],
      [
        "à¦¸",
        "à¦ļ"
      ],
      [
        "à¦¡",
        "à¦ª"
      ],
      [
        "Ġà¦Ĩ",
        "à¦ĩ"
      ],
      [
        "Ġà¦Ĩ",
        "à¦ĩà¦¨"
      ],
      [
        "Ġà¦°",
        "à¦®à¦¨"
      ],
      [
        "à¦Ĺ",
        "à¦ł"
      ],
      [
        "à¦Ĺ",
        "à¦²à¦ķ"
      ],
      [
        "Ġà¦ļ",
        "à¦°à¦ķ"
      ],
      [
        "Ġà¦ĸ",
        "à¦¨"
      ],
      [
        "à¦£",
        "à¦¨"
      ],
      [
        "à¦ĺ",
        "à¦¨"
      ],
      [
        "Ġà¦¦à¦²",
        "à¦Ĺ"
      ],
      [
        "Ġà¦Ĩà¦²",
        "à¦ĸ"
      ],
      [
        "Ġà¦¶à¦¹à¦°",
        "à¦ķ"
      ],
      [
        "âĢ",
        "Ŀ"
      ],
      [
        "à¦°",
        "à¦Ŀà¦¡"
      ],
      [
        "à¦ķ",
        "à¦Ŀà¦ķ"
      ],
      [
        "à¦¨",
        "à¦²"
      ],
      [
        "à¦¼",
        "à§Ĥ"
      ],
      [
        "à¦®",
        "à¦£"
      ],
      [
        "Ġà¦ķà¦°",
        "à¦®à¦°"
      ],
      [
        "Ġà¦Ł",
        "à¦¸"
      ],
      [
        "Ġà¦Ŀ",
        "à¦ķà¦Ŀà¦ķ"
      ],
      [
        "à¦ı",
        "à¦¬"
      ],
      [
        "à¦¦à¦¨",
        "à¦®"
      ],
      [
        "Ġà¦ĩà¦¨",
        "à¦²"
      ],
      [
        "Ġ1",
        "0"
      ],
      [
        "Ġ1",
        "2"
      ],
      [
        "à¦¸à¦«",
        "à¦¡"
      ],
      [
        "à¦īà§İ",
        "à¦¸à¦¬"
      ],
      [
        "Ġà¦¬",
        "à¦ī"
      ],
      [
        "Ġà¦®",
        "à¦¶à¦²"
      ],
      [
        "à¦ľà¦¨",
        "à¦¤"
      ],
      [
        "à¦ª",
        "à¦®"
      ],
      [
        "Ġà¦Ĩ",
        "à¦ĩà¦ªà¦¡"
      ],
      [
        "à¦·",
        "à¦ľ"
      ],
      [
        "à¦ĩ",
        "à¦¹"
      ],
      [
        "Ġà¦¨",
        "à¦¬à¦¦à¦®"
      ],
      [
        "à¦¼à¦¾",
        "-"
      ],
      [
        "Ġà¦Ĺ",
        "à¦ľ"
      ],
      [
        "Ġà¦ļ",
        "à¦Ł"
      ],
      [
        "à¦«",
        "à¦°à¦®"
      ],
      [
        "Ġà¦Ń",
        "à¦¬"
      ],
      [
        "à¦ł",
        "à¦®"
      ],
      [
        "à¦ł",
        "à¦¶"
      ],
      [
        "Ġà¦ĺ",
        "à¦£"
      ],
      [
        "Ġà¦ĺ",
        "à¦·à¦Ľ"
      ],
      [
        "Ġà¦ľà¦¨",
        "à¦¬à¦¸à¦¤"
      ],
      [
        "à¦Ŀ",
        "à¦ªà¦¥"
      ],
      [
        "à¦Łà¦ª",
        "à¦²"
      ],
      [
        "à¦ħ",
        "à¦ª"
      ],
      [
        "à¦²à¦ķ",
        "à¦¯"
      ],
      [
        "à¦²à¦ķ",
        "à¦¦"
      ],
      [
        "Ġà¦īà¦ł",
        "à¦²"
      ],
      [
        "à¦Ĩ",
        "à¦ªà¦¨"
      ],
      [
        "Ġà¦¬à¦ĩ",
        "à¦¤"
      ],
      [
        "Ġà¦Ĩà¦¬à¦°",
        "à¦£"
      ],
      [
        "Ġà¦¤à¦²",
        "à¦¦"
      ],
      [
        "à¦¨à¦¸",
        "à¦ĩ"
      ],
      [
        "ĠâĢ",
        "ľ"
      ],
      [
        "à¦¾",
        ")"
      ],
      [
        "à¦ķ",
        "à¦§"
      ],
      [
        "à¦¨",
        "à¦®"
      ],
      [
        "à¦¨",
        "à¦¶à¦¨"
      ],
      [
        "Ġà¦ª",
        "à¦ªà¦¸"
      ],
      [
        "à¦¶",
        "à¦¬à¦¨"
      ],
      [
        "à¦¹",
        "à¦ķà¦ķ"
      ],
      [
        "Ġà¦ªà¦°",
        "à¦¤"
      ],
      [
        "Ġà¦¨",
        "à¦°à¦®"
      ],
      [
        "Ġà¦Ľ",
        "à¦Ł"
      ],
      [
        "Ġà¦ĸ",
        "à¦°"
      ],
      [
        "Ġà¦ĸ",
        "à¦ŀ"
      ],
      [
        "Ġà¦ħ",
        "à¦¬à¦°"
      ],
      [
        "Ġà¦«",
        "à¦¯"
      ],
      [
        "à¦£",
        "à¦¤"
      ],
      [
        "Ġà¦ĺ",
        "à¦Ł"
      ],
      [
        "Ġà¦¡",
        "à¦¬à¦²"
      ],
      [
        "à¦ĺ",
        "à¦¡"
      ],
      [
        "à¦ħ",
        "à¦¤"
      ],
      [
        "à¦ħ",
        "à¦Ĺà¦Ń"
      ],
      [
        "à§",
        "Ń"
      ],
      [
        "à¦°",
        "à¦¶à¦®"
      ],
      [
        "à¦²",
        "à¦ªà¦¤"
      ],
      [
        "Ġà¦ıà¦ķ",
        "à¦ļ"
      ],
      [
        "Ġà¦ª",
        "à¦ªà¦ķà¦°"
      ],
      [
        "à¦ľ",
        "à¦ªà¦¥"
      ],
      [
        "à¦ľ",
        "à¦¬à¦¬"
      ],
      [
        "Ġà¦ķ",
        "à¦ķà¦Ł"
      ],
      [
        "Ġà¦Ĩ",
        "à¦ĸà¦¡"
      ],
      [
        "à¦¶",
        "à¦§"
      ],
      [
        "à¦¶",
        "à¦ĵà¦¯"
      ],
      [
        "à¦ĸ",
        "à¦°"
      ],
      [
        "Ġà¦Ń",
        "à¦°à¦ª"
      ],
      [
        "à¦Ļ",
        "à¦°"
      ],
      [
        "à¦Ļ",
        "à¦Ľ"
      ],
      [
        "Ġà¦ĵ",
        "à¦ĩ"
      ],
      [
        "Ġà¦ľà¦¨",
        "à¦¬à¦¹"
      ],
      [
        "Ġà¦¬à¦²",
        "à¦Ĺ"
      ],
      [
        "à¦¬à¦ķ",
        "à¦Ĺ"
      ],
      [
        "Ġà¦īà¦ª",
        "à¦ļ"
      ],
      [
        "à¦·à¦ķ",
        "à¦¦"
      ],
      [
        "à¦ľà¦®",
        "à¦¹à¦²"
      ],
      [
        "Ġà¦ıà¦ķ",
        "à¦®"
      ],
      [
        "à§ĭ",
        "'"
      ],
      [
        "Ġà¦¬",
        "à¦§"
      ],
      [
        "à¦¤",
        "à¦ķà¦¦"
      ],
      [
        "à¦¸",
        "à¦Ń"
      ],
      [
        "Ġà¦¸",
        "à¦°à¦ķ"
      ],
      [
        "Ġà¦ķà¦°",
        "à¦²"
      ],
      [
        "Ġà¦¹",
        "à¦¸"
      ],
      [
        "à¦ĸ",
        "à¦ĵà¦¯"
      ],
      [
        "Ġà¦¯",
        "à¦¥"
      ],
      [
        "Ġà¦ļ",
        "à¦®à¦ķ"
      ],
      [
        "Ġà¦ĸ",
        "à¦£"
      ],
      [
        "Ġà¦¸à¦®",
        "à¦¬"
      ],
      [
        "Ġà¦ľà¦²",
        "à¦¯"
      ],
      [
        "à¦ĩà¦¨",
        "à¦²"
      ],
      [
        "à¦°à¦ª",
        "à¦¯"
      ],
      [
        "à¦ĩà¦Ł",
        "à¦¬"
      ],
      [
        "à¦Ĩ",
        "à¦®à¦°"
      ],
      [
        "Ġà¦īà¦ª",
        "à¦¯"
      ],
      [
        "Ġà§",
        "Ń"
      ],
      [
        "Ġà¦Ĩà¦¸",
        "à¦¤"
      ],
      [
        "Ġà¦ĩà¦¨",
        "à¦«"
      ],
      [
        "à¦°à¦¶à¦®",
        "à¦ķ"
      ],
      [
        "Ġà¦",
        "Ĳ"
      ],
      [
        "à¦°",
        "à¦¬à¦²"
      ],
      [
        "à§ģ",
        "à¦Ĥ"
      ],
      [
        "Ġà¦ª",
        "à¦ŀ"
      ],
      [
        "à¦¤",
        "à¦Ľ"
      ],
      [
        "à¦¤",
        "à¦ļ"
      ],
      [
        "Ġà¦®",
        "à¦£"
      ],
      [
        "à¦ľà¦¨",
        "à¦¸à¦®"
      ],
      [
        "Ġà¦¸",
        "à¦¶à¦¸"
      ],
      [
        "à¦ļ",
        "à¦¬"
      ],
      [
        "Ġà¦Ĩ",
        "à¦¹"
      ],
      [
        "à¦·",
        "à¦¨"
      ],
      [
        "Ġà¦¤",
        "à¦®"
      ],
      [
        "à¦Ĺ",
        "à¦ļ"
      ],
      [
        "à¦ī",
        "à¦ĩà¦¨"
      ],
      [
        "Ġà¦ĵ",
        "à¦·"
      ],
      [
        "Ġà¦¸à¦®",
        "à¦Ń"
      ],
      [
        "Ġà¦ĩ",
        "à¦īà¦ķ"
      ],
      [
        "Ġà¦¬à¦²",
        "à¦¦"
      ],
      [
        "à¦°à¦¸",
        "à¦ķ"
      ],
      [
        "à¦°à¦¸",
        "à¦¬"
      ],
      [
        "Ġà¦Ĩà¦²",
        "à¦¤"
      ],
      [
        "à¦ĩà¦²",
        "à¦¯"
      ],
      [
        "Ġà¦¬à¦ĩ",
        "à¦Ľ"
      ],
      [
        "à¦¤à¦²",
        "à¦ľ"
      ],
      [
        "Ġà¦īà¦²",
        "à¦Ļ"
      ],
      [
        "à¦°à¦ļ",
        "à¦£"
      ],
      [
        "Ġà¦ĩà¦¨",
        "à¦¸"
      ],
      [
        "Ġà¦ħà¦¬",
        "à¦¶"
      ],
      [
        "à¦°à¦ĸ",
        "à¦°"
      ],
      [
        "à¦Ĩà¦ĩà¦¸",
        "à¦ķ"
      ],
      [
        "1",
        "0"
      ],
      [
        "à§",
        "¦"
      ],
      [
        "à§",
        "®"
      ],
      [
        "à¦ķ",
        "à¦ł"
      ],
      [
        "à¦²",
        "à¦®à¦²"
      ],
      [
        "à¦Ľ",
        "à¦¤"
      ],
      [
        "Ġà¦ıà¦ķ",
        "à¦¯"
      ],
      [
        "Ġà¦ıà¦ķ",
        "à¦¬"
      ],
      [
        "Ġà¦ª",
        "à¦®"
      ],
      [
        "Ġà¦ķ",
        "à¦ķà¦ª"
      ],
      [
        "à¦¤",
        "à¦¬à¦ķ"
      ],
      [
        "Ġà¦¦",
        "à¦¶à¦ľà¦¨"
      ],
      [
        "à¦¡",
        "à¦Ń"
      ],
      [
        "Ġà¦Ĩ",
        "à¦²à¦®"
      ],
      [
        "Ġà¦Ĩ",
        "à¦ĩà¦«"
      ],
      [
        "à¦¶",
        "à¦¤"
      ],
      [
        "à¦¶",
        "à¦°à¦¤"
      ],
      [
        "Ġà¦ļ",
        "à¦°à¦Ľ"
      ],
      [
        "à¦«",
        "à¦¸"
      ],
      [
        "Ġà¦¬à¦¸",
        "à¦¨"
      ],
      [
        "à¦ĵ",
        "à¦Ĺ"
      ],
      [
        "à¦°à¦¤",
        "à¦Ł"
      ],
      [
        "à¦ĩà¦¨",
        "à¦¡"
      ],
      [
        "à¦ħ",
        "à¦ªà¦°"
      ],
      [
        "Ġà¦ļà¦²",
        "à¦¤"
      ],
      [
        "Ġà¦ªà¦¤",
        "à¦¨"
      ],
      [
        "Ġà¦Ĩà¦Ĺ",
        "à¦¤"
      ],
      [
        "à¦īà¦ľ",
        "à¦¸"
      ],
      [
        "à¦ĩà¦«",
        "à¦Ĺ"
      ],
      [
        "Ġà¦ħà¦¬",
        "à¦¸à¦°"
      ],
      [
        "Ġà¦ķà¦¤",
        "à¦ķà¦Ĺ"
      ],
      [
        "Ġà¦Ĺà¦£",
        "à¦ªà¦°"
      ],
      [
        "Ġà¦Ľà¦Ł",
        "à¦«à¦Ł"
      ],
      [
        "1",
        "9"
      ],
      [
        "Ġ",
        "."
      ],
      [
        "Ġà¦",
        "Ĭ"
      ],
      [
        "à¦¾",
        "à¦¾"
      ],
      [
        "à§ģ",
        "âĢĻ"
      ],
      [
        "Ġà¦ıà¦ķ",
        "à¦ĩà¦Ń"
      ],
      [
        "Ġà¦ª",
        "à¦ľ"
      ],
      [
        "Ġà¦ķ",
        "à¦¦à¦®"
      ],
      [
        "à¦¤",
        "à¦ĵà¦¯"
      ],
      [
        "à¦¬",
        "à¦ĩà¦¯"
      ],
      [
        "à¦ľà¦¨",
        "à¦¶"
      ],
      [
        "à¦¡",
        "à¦¶"
      ],
      [
        "à¦®",
        "à¦«à¦²"
      ],
      [
        "à¦ļ",
        "à¦®"
      ],
      [
        "à¦ª",
        "à¦¶à¦®"
      ],
      [
        "Ġà¦Ĩ",
        "à¦²à¦¨"
      ],
      [
        "à¦¹",
        "à¦£à¦ķ"
      ],
      [
        "Ġà¦¹",
        "à¦ªà¦¸"
      ],
      [
        "Ġà¦¶",
        "à¦¯"
      ],
      [
        "à¦ĸ",
        "à¦¬à¦¨"
      ],
      [
        "à¦Ĺ",
        "à¦Ĺ"
      ],
      [
        "à¦¼à¦¿",
        ","
      ],
      [
        "Ġà¦ħ",
        "à¦ļ"
      ],
      [
        "à¦Ń",
        "à¦¡"
      ],
      [
        "à¦ĵ",
        "à¦ķ"
      ],
      [
        "à¦ĵ",
        "à¦ķà¦²"
      ],
      [
        "à¦¨à¦ľà¦¨",
        "à¦ķ"
      ],
      [
        "à¦¬à¦°",
        "à¦Ł"
      ],
      [
        "à¦Łà¦ª",
        "à¦Ł"
      ],
      [
        "à¦¤à¦°",
        "à¦ķ"
      ],
      [
        "à¦ı",
        "à¦Ĺ"
      ],
      [
        "à¦Ĩ",
        "à¦§"
      ],
      [
        "à¦ĩà¦²",
        "à¦ªà¦²"
      ],
      [
        "à§İ",
        "à¦¶"
      ],
      [
        "à§İ",
        "à¦¸à¦ķ"
      ],
      [
        "à¦ļà¦ķ",
        "à¦ļà¦ķ"
      ],
      [
        "Ġà¦ıà¦®à¦¨",
        "à¦Ń"
      ],
      [
        "Ġ5",
        "0"
      ],
      [
        "Ġà¦ĩà¦ī",
        "à¦ıà¦¸à¦ı"
      ],
      [
        "2",
        "012"
      ],
      [
        "Ġ",
        "$"
      ],
      [
        "Ķ",
        "à¦·"
      ],
      [
        "à¦Ł",
        "à¦²à¦¨"
      ],
      [
        "à§ģ",
        "à§į"
      ],
      [
        "à¦¤",
        "à¦ķà¦ķ"
      ],
      [
        "à¦¬",
        "à¦Ń"
      ],
      [
        "Ġà¦¦",
        "à¦¶"
      ],
      [
        "à¦¦",
        "à¦¤"
      ],
      [
        "à¦¦",
        "à¦¶"
      ],
      [
        "à¦¦",
        "à¦Ĺ"
      ],
      [
        "Ġà¦Ĩ",
        "à¦ł"
      ],
      [
        "Ġà¦Ĩ",
        "à¦¬à¦ķ"
      ],
      [
        "Ġà¦Ĩ",
        "à¦ĩà¦¡"
      ],
      [
        "Ġà¦Ĩ",
        "à¦ĩà¦ª"
      ],
      [
        "à¦·",
        "à¦®à¦¤"
      ],
      [
        "à¦ĩ",
        "à¦ªà¦°"
      ],
      [
        "Ġà¦¨",
        "à¦¥"
      ],
      [
        "Ġà¦°",
        "à¦¬"
      ],
      [
        "à¦Ĺ",
        "à¦¸"
      ],
      [
        "à¦¥",
        "à¦¦"
      ],
      [
        "Ġà¦¬à¦¸",
        "à¦¤"
      ],
      [
        "à¦£",
        "à¦ļ"
      ],
      [
        "à¦ī",
        "à¦ªà¦ľ"
      ],
      [
        "Ġà¦ĵ",
        "à¦¬"
      ],
      [
        "Ġà¦ĵ",
        "à¦°à¦¨"
      ],
      [
        "Ġà¦¢",
        "à¦²"
      ],
      [
        "Ġà¦¬à¦¨",
        "à¦«"
      ],
      [
        "Ġà¦Ĩà¦Ĺ",
        "à¦®à¦¨"
      ],
      [
        "Ġ1",
        "1"
      ],
      [
        "Ġ1",
        "3"
      ],
      [
        "Ķà¦·",
        "à¦§"
      ],
      [
        "à§ĩ",
        ")"
      ],
      [
        "à¦¨",
        "à¦ı"
      ],
      [
        "à¦Ł",
        "à¦Ĩà¦īà¦Ł"
      ],
      [
        "à¦¼",
        ","
      ],
      [
        "Ġà¦ķ",
        "à¦Ł"
      ],
      [
        "à¦¤",
        "à¦¸"
      ],
      [
        "Ġà¦®",
        "à¦Ł"
      ],
      [
        "Ġà¦®",
        "à¦ĸ"
      ],
      [
        "à¦¦",
        "à¦®à¦¯"
      ],
      [
        "Ġà¦Ĩ",
        "à¦ľ"
      ],
      [
        "Ġà¦¤",
        "à¦¬"
      ],
      [
        "Ġà¦Ľ",
        "à¦¨"
      ],
      [
        "Ġà¦ľ",
        "à¦¬"
      ],
      [
        "Ġà¦ľ",
        "à¦²à¦Ľ"
      ],
      [
        "Ġà¦ļ",
        "à¦Łà¦ªà¦Ł"
      ],
      [
        "Ġà¦ĸ",
        "à¦¬"
      ],
      [
        "Ġà¦ħ",
        "à¦£"
      ],
      [
        "Ġà¦«",
        "à¦°à¦®"
      ],
      [
        "Ġà¦«",
        "à¦²à¦ķ"
      ],
      [
        "à¦ł",
        "à¦ķà¦¯"
      ],
      [
        "à¦Ń",
        "à¦Ł"
      ],
      [
        "à¦ĵ",
        "à¦¬"
      ],
      [
        "Ġà¦¡",
        "à¦®"
      ],
      [
        "à¦ķà¦Ł",
        "à¦ª"
      ],
      [
        "Ġà¦ĩ",
        "à¦Łà¦Ń"
      ],
      [
        "à¦²à¦ķ",
        "à¦Ń"
      ],
      [
        "à¦Ĩ",
        "à¦¬"
      ],
      [
        "Ġà¦Ĩà¦²",
        "à¦Ĺ"
      ],
      [
        "Ġà¦ħà¦ª",
        "à¦¸"
      ],
      [
        "à¦°à¦£",
        "à¦Ń"
      ],
      [
        "Ġà¦Ĺà¦²",
        "à¦¦"
      ],
      [
        "à¦ķà¦²",
        "à¦¸"
      ],
      [
        "Ġà¦Ĩà¦īà¦Ł",
        "à¦«"
      ],
      [
        "Ġà¦¶à¦Ł",
        "à¦Ĺ"
      ],
      [
        "Ġà¦ĸà¦¨à¦¨",
        "à¦ķ"
      ],
      [
        "Ġà¦¨à¦Ĺ",
        "à¦¦"
      ],
      [
        "00",
        "8"
      ],
      [
        "à§",
        "·"
      ],
      [
        "à¦²",
        "à¦¹"
      ],
      [
        "à¦²",
        "à¦¡à¦Ĺ"
      ],
      [
        "Ġà¦ª",
        "à¦Ł"
      ],
      [
        "Ġà¦®",
        "à¦¸à¦²"
      ],
      [
        "à¦®",
        "à¦«"
      ],
      [
        "Ġà¦Ĩ",
        "à¦²à¦ķ"
      ],
      [
        "à¦·",
        "à¦ĵ"
      ],
      [
        "Ġà¦¤",
        "à¦¬à¦²"
      ],
      [
        "Ġà¦¹",
        "à¦¤à¦¬"
      ],
      [
        "Ġà¦ļ",
        "à¦ª"
      ],
      [
        "Ġà¦ļ",
        "à¦ŀ"
      ],
      [
        "Ġà¦¬à¦¸",
        "à¦¬"
      ],
      [
        "à¦ªà¦°",
        "à¦¤"
      ],
      [
        "Ġà¦¸à¦®",
        "à¦ķ"
      ],
      [
        "Ġà¦Ŀ",
        "à¦²à¦ķ"
      ],
      [
        "Ġà¦Ŀ",
        "à¦²à¦¸"
      ],
      [
        "Ġà¦¸à¦¬",
        "à¦ķ"
      ],
      [
        "à¦Ŀ",
        "à¦®"
      ],
      [
        "Ġà¦ľà¦²",
        "à¦¨"
      ],
      [
        "Ġà¦ħà¦ªà¦°",
        "à¦ľà¦¨"
      ],
      [
        "à¦¸à¦¬à¦²",
        "à¦ķ"
      ],
      [
        "à¦°à¦¦",
        "à¦ķ"
      ],
      [
        "à¦¯à¦®",
        "à¦¯"
      ],
      [
        "Ġà¦Ĩà¦ļ",
        "à¦°à¦£"
      ],
      [
        "Ġà¦Ĩà¦¨",
        "à¦¤"
      ],
      [
        "Ġà¦¶à¦Ł",
        "à¦Ł"
      ],
      [
        "à¦¶à¦¹",
        "à¦°à¦¤à¦²"
      ],
      [
        "Ġà¦®à¦Łà¦°",
        "à¦¶"
      ],
      [
        "Ġà¦ļà¦Ł",
        "à¦ķà¦¦"
      ],
      [
        "Ġà¦®à¦ĸ",
        "à¦®à¦²"
      ],
      [
        "1",
        "1"
      ],
      [
        "Ķ",
        "à¦ªà¦¨"
      ],
      [
        "à¦°",
        "à¦Łà¦ª"
      ],
      [
        "à¦Ł",
        "à¦ħà¦«"
      ],
      [
        "à¦²",
        "à¦ķà¦Ĺ"
      ],
      [
        "à¦¯",
        "à¦Ń"
      ],
      [
        "Ġà¦¬",
        "à¦¶"
      ],
      [
        "à¦ľ",
        "à¦¸à¦ªà¦¤"
      ],
      [
        "à¦¬",
        "à¦®"
      ],
      [
        "à¦ļ",
        "à¦¯"
      ],
      [
        "Ġà¦Ĩ",
        "à¦Łà¦Ł"
      ],
      [
        "à¦¹",
        "à¦¬"
      ],
      [
        "à¦Ĥ",
        "-"
      ],
      [
        "à¦ĸ",
        "à¦Ń"
      ],
      [
        "Ġà¦°",
        "à¦¨"
      ],
      [
        "à¦¼à¦¿",
        "-"
      ],
      [
        "Ġà¦ħ",
        "à¦ķà¦ª"
      ],
      [
        "à¦«",
        "à¦¨"
      ],
      [
        "à¦«",
        "à¦¤"
      ],
      [
        "à¦§",
        "à¦ķà¦¤"
      ],
      [
        "Ġà¦§",
        "à¦¡"
      ],
      [
        "à¦Ļ",
        "à¦²"
      ],
      [
        "à¦£",
        "à¦ķà¦°"
      ],
      [
        "Ġà¦ľà¦¨",
        "à¦ķ"
      ],
      [
        "Ġà¦ĩ",
        "à¦ļ"
      ],
      [
        "Ġà¦ĩ",
        "à¦¸à¦°"
      ],
      [
        "à¦Łà¦¬à¦²",
        "à¦Ł"
      ],
      [
        "à¦ħ",
        "à¦¬"
      ],
      [
        "Ġà¦¦à¦²",
        "à¦¬à¦¦"
      ],
      [
        "à¦Ĩ",
        "à¦¦"
      ],
      [
        "à¦°à¦ķ",
        "à¦¦"
      ],
      [
        "à¦ĩà¦¡",
        "à¦®"
      ],
      [
        "Ġà¦¬à¦¹à¦¨",
        "à¦¯"
      ],
      [
        "Ġà¦ľà¦®",
        "à¦ķ"
      ],
      [
        "Ġà¦ıà¦®à¦¨",
        "à¦ķ"
      ],
      [
        "Ġ3",
        "0"
      ],
      [
        "Ġà¦¨à¦¤",
        "à¦ľ"
      ],
      [
        "à¦Ĩà¦īà¦Ł",
        "à¦¡"
      ],
      [
        "à¦Ĺà¦£",
        "à¦ªà¦°"
      ],
      [
        "Ġà¦īà¦ĩ",
        "à¦Ĺ"
      ],
      [
        "à¦¨à¦ı",
        "à¦ĩà¦¡"
      ],
      [
        "Ġà¦ħà¦ķà¦ª",
        "à¦Ł"
      ],
      [
        "à¦¾",
        ";"
      ],
      [
        "à¦°",
        "à¦£à¦ķ"
      ],
      [
        "à¦°",
        "à¦Ĩà¦¨"
      ],
      [
        "à¦¨",
        "à¦¬à¦¦à¦®"
      ],
      [
        "à¦²",
        "à¦ĵà¦Ń"
      ],
      [
        "à¦¯",
        "à¦ĸà¦¨"
      ],
      [
        "à¦Ľ",
        "à¦¡"
      ],
      [
        "Ġà¦¬",
        "à¦¦à¦¨"
      ],
      [
        "à¦ľ",
        "à¦¦"
      ],
      [
        "à¦¸",
        "à¦²à¦®"
      ],
      [
        "à¦¸",
        "à¦«à¦²"
      ],
      [
        "Ġà¦¦",
        "à¦°à¦ķ"
      ],
      [
        "Ġà¦¦",
        "à¦¶à¦Ł"
      ],
      [
        "à¦¡",
        "à¦ıà¦¯"
      ],
      [
        "Ġà¦¸",
        "à¦ª"
      ],
      [
        "Ġà¦¸",
        "à¦ĵà¦¯"
      ],
      [
        "Ġà¦¸",
        "à¦°à¦²"
      ],
      [
        "Ġà¦Ĩ",
        "à¦ĩà¦ķ"
      ],
      [
        "Ġà¦Ĩ",
        "à¦ĩà¦°"
      ],
      [
        "Ġà¦Ĩ",
        "à¦¸à¦²"
      ],
      [
        "à¦¹",
        "à¦Ł"
      ],
      [
        "Ġà¦¤",
        "à¦Ł"
      ],
      [
        "Ġà¦¤",
        "à¦¦"
      ],
      [
        "Ġà¦¤",
        "à¦¦à¦¨"
      ],
      [
        "Ġà¦¨",
        "à¦Ĺà¦°"
      ],
      [
        "à¦ĸ",
        "à¦Ł"
      ],
      [
        "Ġà¦¯",
        "à¦¤à¦Ł"
      ],
      [
        "Ġà¦°",
        "à¦Łà¦ĵà¦¯"
      ],
      [
        "Ġà¦°",
        "à¦®à¦£"
      ],
      [
        "à¦¥",
        "à¦¸"
      ],
      [
        "à¦«",
        "à¦²à¦ķ"
      ],
      [
        "à¦§",
        "à¦Ł"
      ],
      [
        "Ġà¦«",
        "à¦Łà¦ķ"
      ],
      [
        "Ġà¦ĩ",
        "à¦ķ"
      ],
      [
        "Ġà¦¸à¦¹",
        "à¦ľ"
      ],
      [
        "à¦ĩà¦¨",
        "à¦Ł"
      ],
      [
        "à¦ĩà¦¨",
        "à¦®"
      ],
      [
        "à¦ħ",
        "à¦ķ"
      ],
      [
        "à¦²à¦ķ",
        "à¦¨"
      ],
      [
        "à¦¦à¦°",
        "à¦¬à¦¨"
      ],
      [
        "à¦¶à¦¨",
        "à¦ķ"
      ],
      [
        "Ġà¦¤à¦°",
        "à¦¬"
      ],
      [
        "à¦¤à¦°",
        "à¦¯"
      ],
      [
        "à¦ĩà¦Ł",
        "à¦°"
      ],
      [
        "à¦ı",
        "à¦²à¦®"
      ],
      [
        "à¦Ĩ",
        "à¦°à¦¬"
      ],
      [
        "à¦Ĩ",
        "à¦°à¦ĵ"
      ],
      [
        "Ġà¦¶à¦¹à¦°",
        "à¦Ł"
      ],
      [
        "à¦Ĺà¦²",
        "à¦ĵà¦¯"
      ],
      [
        "à¦¸à¦®",
        "à¦¯"
      ],
      [
        "Ġà§",
        "®"
      ],
      [
        "à¦¹à¦²",
        "à¦¯"
      ],
      [
        "Ġà¦¬à¦°à¦«",
        "à¦¯"
      ],
      [
        "à¦Ĺà¦ľ",
        "à¦Ł"
      ],
      [
        "Ġà¦ħà¦¸",
        "à¦¹"
      ],
      [
        "Ġà¦ķà¦¨",
        "à¦¡à¦®"
      ],
      [
        "à¦¦à¦¨",
        "à¦¶"
      ],
      [
        "Ġ2",
        "0"
      ],
      [
        "Ġà¦īà§İ",
        "à¦ª"
      ],
      [
        "Ġ5",
        "3"
      ],
      [
        "à¦ĩà¦ī",
        "à¦ıà¦¸à¦ı"
      ],
      [
        "à¦ľà¦¨à¦¸à¦®",
        "à¦ķ"
      ],
      [
        "1",
        "3"
      ],
      [
        "Ġ",
        ".."
      ],
      [
        "à¦Ł",
        "à¦§"
      ],
      [
        "à¦²",
        "à¦§"
      ],
      [
        "à¦¯",
        "à¦ĩ"
      ],
      [
        "à¦¼",
        "à¦Ĥ"
      ],
      [
        "à¦ľ",
        "à¦ķà¦¨"
      ],
      [
        "Ġà¦ķ",
        "à¦¬à¦²"
      ],
      [
        "Ġà¦ķ",
        "à¦¤à¦Ł"
      ],
      [
        "à¦¤",
        "à¦°à¦®"
      ],
      [
        "à¦¤",
        "à¦ķà¦°"
      ],
      [
        "Ġà¦®",
        "à§İà¦¸"
      ],
      [
        "à¦ľà¦¨",
        "à¦Ĺà¦£"
      ],
      [
        "à¦®",
        "à¦ĵà¦¯"
      ],
      [
        "à¦®",
        "à¦°à¦£"
      ],
      [
        "à¦¦",
        "à¦¶à¦ľà¦¨"
      ],
      [
        "à¦ĩ",
        "à¦²à¦¨"
      ],
      [
        "à¦ĩ",
        "à¦ĵà¦Ń"
      ],
      [
        "Ġà¦ı",
        "à¦ĩà¦¡"
      ],
      [
        "à¦ĸ",
        "à¦°à¦Ĺ"
      ],
      [
        "à¦Ĺ",
        "à¦°à¦£"
      ],
      [
        "Ġà¦ļ",
        "à¦®à¦¤"
      ],
      [
        "à¦§",
        "à¦®"
      ],
      [
        "Ġà¦ĵ",
        "à¦²"
      ],
      [
        "Ġà¦ľà¦¨",
        "à¦ª"
      ],
      [
        "à¦¿à¦Ĥ",
        "à¥¤"
      ],
      [
        "à¦ĵ",
        "à¦Ł"
      ],
      [
        "Ġà¦¡",
        "à¦ľ"
      ],
      [
        "Ġà¦¸à¦®",
        "à¦¬à¦¯"
      ],
      [
        "Ġà¦Ĩà¦°",
        "à¦Ń"
      ],
      [
        "Ġà¦ĩ",
        "à¦¸à¦²"
      ],
      [
        "Ġà¦¬à¦²",
        "à¦°"
      ],
      [
        "Ġà¦¸à¦¹",
        "à¦ª"
      ],
      [
        "à¦ĺ",
        "à¦¯"
      ],
      [
        "à¦ħ",
        "à¦¶"
      ],
      [
        "à¦²à¦ķ",
        "à¦ª"
      ],
      [
        "à¦ı",
        "à¦®à¦¨"
      ],
      [
        "à¦Ĩ",
        "à¦Łà¦Ł"
      ],
      [
        "à¦¨à¦Ĺ",
        "à¦°"
      ],
      [
        "à¦īà¦Ł",
        "à¦°"
      ],
      [
        "à¦ªà¦¨",
        "à¦ķ"
      ],
      [
        "Ġà¦ľà¦®",
        "à¦ľà¦®"
      ],
      [
        "à¦¨à¦¬",
        "à¦ľ"
      ],
      [
        "Ġ2",
        "5"
      ],
      [
        "Ġà¦ĩà¦¨",
        "à¦ľ"
      ],
      [
        "à¦īà¦¬",
        "à¦ĵà¦¯"
      ],
      [
        "à¦Ĩà¦®",
        "à¦Ĺ"
      ],
      [
        "à¦¶à¦°",
        "à¦·"
      ],
      [
        "Ġ4",
        "9"
      ],
      [
        "à¦¡à¦²à¦ķ",
        "à¦¸"
      ],
      [
        "à¦°à¦¥",
        "à¦®à¦¬"
      ],
      [
        "5",
        "0"
      ],
      [
        "Ġà¦",
        "Ķà¦·à¦§"
      ],
      [
        "à§ĩ",
        ":"
      ],
      [
        "à§ĩ",
        "?"
      ],
      [
        "à¦¿",
        "'"
      ],
      [
        "à¦ķ",
        "à¦£"
      ],
      [
        "à¦ķ",
        "à¦¬à¦²"
      ],
      [
        "à¦¨",
        "à¦¤à¦²"
      ],
      [
        "à¦Ł",
        "à¦°à¦ķ"
      ],
      [
        "à¦²",
        "à¦¹à¦°"
      ],
      [
        "à¦¼",
        "!"
      ],
      [
        "Ġà¦ª",
        "à¦Ĺ"
      ],
      [
        "Ġà¦¬",
        "à¦ªà¦¨"
      ],
      [
        "à¦ľ",
        "à¦ĵà¦¯"
      ],
      [
        "à¦¤",
        "à¦ķà¦¡"
      ],
      [
        "à¦¸",
        "à¦ķà¦²"
      ],
      [
        "à¦ľà¦¨",
        "à¦ķà¦Ń"
      ],
      [
        "à¦®",
        "à¦¹à¦°"
      ],
      [
        "à¦®",
        "à¦ĺà¦Ł"
      ],
      [
        "à¦ļ",
        "à¦ª"
      ],
      [
        "à¦ļ",
        "à¦²à¦¨"
      ],
      [
        "à¦ļ",
        "à¦ķà¦²"
      ],
      [
        "à¦¶",
        "à¦ĩ"
      ],
      [
        "à¦¹",
        "à¦ª"
      ],
      [
        "Ġà¦²",
        "à¦¸"
      ],
      [
        "Ġà¦ªà¦°",
        "à¦¸"
      ],
      [
        "à¦ĩ",
        "à¦¶"
      ],
      [
        "Ġà¦¹",
        "à¦ĩà¦Ľ"
      ],
      [
        "Ġà¦ı",
        "à¦¸à¦ª"
      ],
      [
        "à¦ĸ",
        "à¦¬à¦°"
      ],
      [
        "Ġà¦°",
        "à¦ĵà¦¨"
      ],
      [
        "à¦Ĺ",
        "à¦°à¦¦"
      ],
      [
        "à¦Ĺ",
        "à¦Ĩà¦īà¦Ł"
      ],
      [
        "Ġà¦ļ",
        "à¦Ľ"
      ],
      [
        "Ġà¦§",
        "à¦¸"
      ],
      [
        "Ġà¦ľà¦¨",
        "à¦Ĺà¦£"
      ],
      [
        "à¦ĵ",
        "à¦¸"
      ],
      [
        "à¦ĵ",
        "à¦®"
      ],
      [
        "Ġà¦¡",
        "à¦Ļ"
      ],
      [
        "Ġà¦¸à¦¹",
        "à¦¯"
      ],
      [
        "à¦¬à¦°",
        "à¦ª"
      ],
      [
        "à¦¬à¦°",
        "à¦£"
      ],
      [
        "à¦²à¦¨",
        "à¦ķ"
      ],
      [
        "à¦ĩà¦ľà¦¨",
        "à¦ķ"
      ],
      [
        "à¦ĩà¦Ł",
        "à¦¸"
      ],
      [
        "à¦ĩà¦Ł",
        "à¦Ĺ"
      ],
      [
        "à¦Ĩ",
        "à¦Ľ"
      ],
      [
        "à¦Ĩ",
        "à¦ĩ"
      ],
      [
        "à¦Ĩ",
        "à¦Ļ"
      ],
      [
        "Ġà¦īà¦ª",
        "à¦²à¦¬"
      ],
      [
        "Ġà¦Ĩà¦²",
        "à¦ªà¦¨"
      ],
      [
        "à¦ĩà¦¡",
        "à¦¬"
      ],
      [
        "à¦ķà¦¦",
        "à¦®"
      ],
      [
        "à¦ĩà¦ª",
        "à¦®"
      ],
      [
        "à¦ķà¦¨",
        "à¦«"
      ],
      [
        "Ġà¦¶à¦ª",
        "à¦¥"
      ],
      [
        "Ġà¦Ĩà¦¨",
        "à¦®à¦¨"
      ],
      [
        "Ġ3",
        "3"
      ],
      [
        "à¦Ĺà¦¤",
        "à¦Ń"
      ],
      [
        "Ġ1",
        "4"
      ],
      [
        "Ġà¦ªà¦¦",
        "à¦ļ"
      ],
      [
        "Ġà¦ªà¦¶à¦®",
        "à¦¯"
      ],
      [
        "Ġà¦Ĺà¦£",
        "à¦¨"
      ],
      [
        "Ġà¦Ĭ",
        "à¦°"
      ],
      [
        "1",
        "2"
      ],
      [
        "2",
        "0"
      ],
      [
        "2",
        "008"
      ],
      [
        "à¦",
        "Ī"
      ],
      [
        "à§",
        "¯"
      ],
      [
        "à¦¾",
        "à§į"
      ],
      [
        "à¦ķ",
        "à¦ľ"
      ],
      [
        "à¦¨",
        "à¦·"
      ],
      [
        "à¦¨",
        "à¦ĸ"
      ],
      [
        "à¦²",
        "à¦ĸ"
      ],
      [
        "à¦¯",
        "à¦Ĺà¦¤"
      ],
      [
        "à¦Ľ",
        "à¦¤à¦²"
      ],
      [
        "Ġà¦ıà¦ķ",
        "à¦²"
      ],
      [
        "Ġà¦ıà¦ķ",
        "à¦¹"
      ],
      [
        "Ġà¦ª",
        "à¦¬"
      ],
      [
        "Ġà¦¬",
        "à¦ĩà¦Ł"
      ],
      [
        "Ġà¦¬",
        "à¦Łà¦Ĺ"
      ],
      [
        "Ġà¦ķ",
        "à¦ĸà¦¨"
      ],
      [
        "à¦¤",
        "à¦Ĺà¦¤"
      ],
      [
        "à¦¬",
        "à¦Ĺ"
      ],
      [
        "à¦¬",
        "à¦ī"
      ],
      [
        "à¦¡",
        "à¦¦"
      ],
      [
        "à¦®",
        "à¦Ń"
      ],
      [
        "à¦®",
        "à¦°à¦ķ"
      ],
      [
        "à¦®",
        "à¦¤à¦ķ"
      ],
      [
        "à¦ļ",
        "à¦¤à¦°"
      ],
      [
        "à¦ļ",
        "à¦ĵà¦¡"
      ],
      [
        "à¦¹",
        "à¦®"
      ],
      [
        "Ġà¦ªà¦°",
        "à¦Ł"
      ],
      [
        "Ġà¦ªà¦°",
        "à¦ªà¦°"
      ],
      [
        "à¦ĩ",
        "à¦¦"
      ],
      [
        "à¦ĩ",
        "à¦¤à¦²"
      ],
      [
        "Ġà¦¨",
        "à¦¨"
      ],
      [
        "Ġà¦¨",
        "à¦·"
      ],
      [
        "Ġà¦ķà¦°",
        "à¦¸"
      ],
      [
        "à¦ĸ",
        "à¦®à¦¨"
      ],
      [
        "Ġà¦Ľ",
        "à¦²"
      ],
      [
        "Ġà¦Ľ",
        "à¦Ľ"
      ],
      [
        "à¦Ĺ",
        "à¦²à¦®"
      ],
      [
        "Ġà¦Ĺ",
        "à¦£à¦ķ"
      ],
      [
        "Ġà¦ĸ",
        "à¦¸à¦¡"
      ],
      [
        "Ġà¦Ł",
        "à¦Ł"
      ],
      [
        "Ġà¦Ł",
        "à¦²à¦®à¦²"
      ],
      [
        "à¦§",
        "à¦ķà¦°"
      ],
      [
        "à¦Ń",
        "à¦¨"
      ],
      [
        "Ġà¦ĺ",
        "à¦°à¦Ł"
      ],
      [
        "à¦ī",
        "à¦¥"
      ],
      [
        "à¦ī",
        "à¦ªà¦¤"
      ],
      [
        "à¦ī",
        "à¦¡à¦¸"
      ],
      [
        "à¦ī",
        "à¦Ńà¦¯"
      ],
      [
        "à¦¬à¦²",
        "à¦¤"
      ],
      [
        "à§Ī",
        "à¦¾"
      ],
      [
        "Ġà¦Ŀ",
        "à¦²à¦®à¦²"
      ],
      [
        "à¦Ŀ",
        "à¦¤"
      ],
      [
        "Ġà¦ĩ",
        "à¦°"
      ],
      [
        "Ġà¦ĩ",
        "à¦¨à¦ķ"
      ],
      [
        "Ġà¦ľà¦²",
        "à¦ķ"
      ],
      [
        "à¦²à¦ķ",
        "à¦§"
      ],
      [
        "à¦ĩà¦Ł",
        "à¦Ł"
      ],
      [
        "à¦ı",
        "à¦¡"
      ],
      [
        "à¦ı",
        "à¦¨à¦ľ"
      ],
      [
        "à¦¯à¦¬",
        "à¦¦"
      ],
      [
        "à¦Ĩ",
        "à¦ļ"
      ],
      [
        "à¦Ĩ",
        "à¦¸à¦¬"
      ],
      [
        "à¦Ĩ",
        "à¦¨à¦¨"
      ],
      [
        "Ġà¦Ĩà¦ķ",
        "à¦Ľ"
      ],
      [
        "à¦¬à¦¤",
        "à¦¶"
      ],
      [
        "Ġà¦¬à¦°",
        "à¦ĩ"
      ],
      [
        "à¦Ĺà¦²",
        "à¦Ł"
      ],
      [
        "à¦Łà¦¸",
        "à¦®"
      ],
      [
        "Ġà¦ħà¦ªà¦°",
        "à¦Ł"
      ],
      [
        "Ġà¦¦à¦®",
        "à¦ķà¦²"
      ],
      [
        "à¦·à¦ķ",
        "à¦ķ"
      ],
      [
        "à¦¬à¦¸",
        "à¦¨"
      ],
      [
        "à¦Ľà¦ª",
        "à¦ķ"
      ],
      [
        "à¦ľà¦²",
        "à¦¯"
      ],
      [
        "à¦ħà¦²",
        "à¦Ļ"
      ],
      [
        "Ġà¦Ĩà¦īà¦Ł",
        "à¦ķ"
      ],
      [
        "à¦¦à¦®",
        "à¦ķà¦²"
      ],
      [
        "Ġà¦ħà¦¬",
        "à¦¹"
      ],
      [
        "à¦®à¦ķ",
        "à¦Ń"
      ],
      [
        "à¦¹à¦ķ",
        "à¦ĵà¦¯"
      ],
      [
        "à¦ıà¦®",
        "à¦ı"
      ],
      [
        "à¦¸à¦«",
        "à¦°à¦®"
      ],
      [
        "Ġà¦ıà¦¨",
        "à¦ĵà¦¯"
      ],
      [
        "Ġà¦Ĩà¦¤",
        "à¦Ļ"
      ],
      [
        "Ġà¦ħà¦²à¦¸",
        "à¦Ń"
      ],
      [
        "Ġà¦Ĩà¦ĩ",
        "à¦¶"
      ],
      [
        "Ġà¦Ĳ",
        "à¦ķ"
      ],
      [
        "à¦Ĺà¦²à¦®",
        "à¦¯"
      ],
      [
        "Ġà¦Ĺà¦£à¦ķ",
        "à¦¬à¦°"
      ],
      [
        "1",
        "5"
      ],
      [
        "2",
        "5"
      ],
      [
        "à§ĩ",
        "à¦Ĥ"
      ],
      [
        "à¦°",
        "à¦ªà¦°"
      ],
      [
        "à¦ķ",
        "à¦¥"
      ],
      [
        "à¦ķ",
        "à¦ĵ"
      ],
      [
        "à¦¨",
        "à¦«"
      ],
      [
        "à¦¨",
        "à¦ªà¦¥"
      ],
      [
        "à¦Ł",
        "à¦Ĩà¦ª"
      ],
      [
        "à¦¯",
        "à¦ļ"
      ],
      [
        "à¦¯",
        "à¦¹"
      ],
      [
        "à¦¼",
        ";"
      ],
      [
        "Ġà¦ıà¦ķ",
        "à¦¦à¦®"
      ],
      [
        "Ġà¦¬",
        "à¦¦à¦²"
      ],
      [
        "Ġà¦ķ",
        "à¦¸à¦ª"
      ],
      [
        "à¦¤",
        "à¦ĺà¦¡"
      ],
      [
        "Ġà¦®",
        "à¦ķ"
      ],
      [
        "Ġà¦®",
        "à¦Łà¦°à¦¸"
      ],
      [
        "Ġà¦¸",
        "à¦ļ"
      ],
      [
        "Ġà¦¸",
        "à¦ĩ"
      ],
      [
        "Ġà¦¸",
        "à¦«à¦°"
      ],
      [
        "à¦®",
        "à¦¬à¦¨"
      ],
      [
        "à¦®",
        "à¦§à¦¨"
      ],
      [
        "à¦ļ",
        "à¦«"
      ],
      [
        "à¦ļ",
        "à¦°à¦®"
      ],
      [
        "à¦ļ",
        "à¦²à¦®"
      ],
      [
        "à¦ª",
        "à¦¦à¦ķ"
      ],
      [
        "à¦¶",
        "à¦ķà¦ķ"
      ],
      [
        "Ġà¦²",
        "à¦ľ"
      ],
      [
        "Ġà¦ı",
        "à¦Ń"
      ],
      [
        "à¦ĸ",
        "à¦¯"
      ],
      [
        "à¦ĸ",
        "à¦ļ"
      ],
      [
        "Ġà¦°",
        "à¦ľ"
      ],
      [
        "Ġà¦ħ",
        "à¦®"
      ],
      [
        "Ġà¦ī",
        "à¦Łà¦ķ"
      ],
      [
        "à¦Ļ",
        "à¦ļ"
      ],
      [
        "à¦Ń",
        "à¦Ļ"
      ],
      [
        "Ġà¦¥",
        "à¦®à¦ķ"
      ],
      [
        "à¦ī",
        "à¦«"
      ],
      [
        "à¦ī",
        "à¦Ń"
      ],
      [
        "à¦ī",
        "à¦Łà¦¬"
      ],
      [
        "à¦ī",
        "à¦¦à¦¯"
      ],
      [
        "Ġà¦ĵ",
        "à¦ľ"
      ],
      [
        "à¦¬à¦²",
        "à¦ľ"
      ],
      [
        "à¦¬à¦²",
        "à¦Ń"
      ],
      [
        "à¦¦à¦²",
        "à¦¬"
      ],
      [
        "à¦Ŀ",
        "à¦°à¦¨"
      ],
      [
        "à¦¨à¦ľà¦¨",
        "à¦ĩ"
      ],
      [
        "à¦°à¦¸",
        "à¦°"
      ],
      [
        "à¦¬à¦°",
        "à¦¯"
      ],
      [
        "à¦ħ",
        "à¦¡"
      ],
      [
        "à¦²à¦¨",
        "à¦ª"
      ],
      [
        "à¦¸à¦¬",
        "à¦¹"
      ],
      [
        "à¦¸à¦¬",
        "à¦Ĺ"
      ],
      [
        "à¦¸à¦°",
        "à¦ķ"
      ],
      [
        "à¦¸à¦°",
        "à¦ŀ"
      ],
      [
        "à¦¤à¦°",
        "à¦¨"
      ],
      [
        "à¦ı",
        "à¦ĸà¦¨"
      ],
      [
        "à¦ı",
        "à¦¸à¦¬"
      ],
      [
        "à¦ı",
        "à¦®à¦¡"
      ],
      [
        "à¦ı",
        "à¦®à¦¸"
      ],
      [
        "à¦Ĩ",
        "à¦ľ"
      ],
      [
        "à¦Ĩ",
        "à¦²à¦®"
      ],
      [
        "Ġà¦Ĩà¦ķ",
        "à¦¶"
      ],
      [
        "Ġà¦īà¦ª",
        "à¦¨"
      ],
      [
        "à¦ĩà¦¡",
        "à¦ķ"
      ],
      [
        "à¦ĩà¦¡",
        "à¦¶"
      ],
      [
        "à¦¬à¦¤",
        "à¦¨"
      ],
      [
        "Ġà¦¬à¦°",
        "à¦¯"
      ],
      [
        "à¦¸à¦®",
        "à¦¦"
      ],
      [
        "à¦°à¦ľà¦¨",
        "à¦ķ"
      ],
      [
        "à¦¹à¦²",
        "à¦ĵà¦¯"
      ],
      [
        "Ġà¦ķà¦®",
        "à¦«"
      ],
      [
        "à¦Ĺà¦¨",
        "à¦ķ"
      ],
      [
        "Ġà¦ħà¦¸",
        "à¦¨"
      ],
      [
        "Ġà¦ķà¦¨",
        "à¦ķ"
      ],
      [
        "à¦ıà¦ĩ",
        "à¦ļ"
      ],
      [
        "à¦¨à¦¬",
        "à¦¬à¦§"
      ],
      [
        "Ġ2",
        "3"
      ],
      [
        "à¦§à¦¨",
        "à¦¸à¦®"
      ],
      [
        "Ġ1",
        "6"
      ],
      [
        "Ġ1",
        "8"
      ],
      [
        "Ġà¦ĺà¦¨",
        "à¦ĺà¦Ł"
      ],
      [
        "à¦°à¦§",
        "à¦°"
      ],
      [
        "Ġ4",
        "4"
      ],
      [
        "Ġà¦¨à¦ĸ",
        "à¦°"
      ],
      [
        "01",
        "0"
      ],
      [
        "à¦ªà¦¨à¦¸à¦°",
        "à¦¡"
      ],
      [
        "à¦ıà¦®à¦¡",
        "à¦¬"
      ],
      [
        "1",
        "6"
      ],
      [
        "2",
        "3"
      ],
      [
        "4",
        "4"
      ],
      [
        "5",
        "5"
      ],
      [
        "6",
        "0"
      ],
      [
        "Ġ",
        "&"
      ],
      [
        "à¦",
        "Ķà¦·à¦§"
      ],
      [
        "à¦",
        "Ķà¦ªà¦¨"
      ],
      [
        "Ġà¦",
        "Ķà¦ªà¦¨"
      ],
      [
        "à§ĩ",
        "'"
      ],
      [
        "à¦ķ",
        "à¦¸à¦¨"
      ],
      [
        "à¦¨",
        "à¦¨à¦ľà¦¨"
      ],
      [
        "à¦¨",
        "à¦ķà¦²"
      ],
      [
        "à¦¨",
        "à¦¸à¦¨"
      ],
      [
        "à¦¨",
        "à¦®à¦ľ"
      ],
      [
        "à¦Ł",
        "à¦°à¦Ł"
      ],
      [
        "à¦²",
        "à¦¬à¦ķ"
      ],
      [
        "à¦¼",
        ")"
      ],
      [
        "à§ģ",
        ":"
      ],
      [
        "Ġà¦ª",
        "à¦¸"
      ],
      [
        "Ġà¦¬",
        "à¦£"
      ],
      [
        "Ġà¦¬",
        "à¦ķà¦Ľ"
      ],
      [
        "à¦ľ",
        "à¦¡"
      ],
      [
        "à¦ľ",
        "à¦ĺ"
      ],
      [
        "à¦¸",
        "à¦¶à¦¸"
      ],
      [
        "Ġà¦¦",
        "à¦ĸ"
      ],
      [
        "à¦¼à§ĩ",
        ";"
      ],
      [
        "Ġà¦®",
        "à¦Ļ"
      ],
      [
        "Ġà¦®",
        "à¦Ŀ"
      ],
      [
        "Ġà¦®",
        "à¦°à¦¸"
      ],
      [
        "à¦ľà¦¨",
        "à¦¸"
      ],
      [
        "à¦ľà¦¨",
        "à¦¸à¦Ń"
      ],
      [
        "à¦¡",
        "à¦ıà¦®"
      ],
      [
        "Ġà¦¸",
        "à¦¦à¦°"
      ],
      [
        "Ġà¦¸",
        "à¦«à¦²"
      ],
      [
        "à¦®",
        "à¦®"
      ],
      [
        "à¦®",
        "à¦Ļ"
      ],
      [
        "à¦®",
        "à¦®à¦¯"
      ],
      [
        "à¦ıà¦ķ",
        "à¦ķ"
      ],
      [
        "à¦ıà¦ķ",
        "à¦¤"
      ],
      [
        "à¦ıà¦ķ",
        "à¦¦"
      ],
      [
        "à¦ıà¦ķ",
        "à¦¹"
      ],
      [
        "à¦¦",
        "à¦ķà¦°"
      ],
      [
        "à¦¦",
        "à¦ķà¦¦"
      ],
      [
        "à¦ļ",
        "à¦«à¦°"
      ],
      [
        "à¦ļ",
        "à¦¤à¦²"
      ],
      [
        "à¦ª",
        "à¦Ń"
      ],
      [
        "Ġà¦Ĩ",
        "à¦īà¦Łà¦¬"
      ],
      [
        "à¦¶",
        "à¦Ľ"
      ],
      [
        "à¦¶",
        "à¦Ŀ"
      ],
      [
        "à¦¹",
        "à¦¯"
      ],
      [
        "à¦·",
        "à¦¶"
      ],
      [
        "à¦·",
        "à¦£à¦ķ"
      ],
      [
        "Ġà¦ªà¦°",
        "à¦¹"
      ],
      [
        "à¦ĩ",
        "à¦Ļ"
      ],
      [
        "à¦ĩ",
        "à¦īà¦¡"
      ],
      [
        "Ġà¦¨",
        "à¦Ń"
      ],
      [
        "Ġà¦ķà¦°",
        "à¦Ĺ"
      ],
      [
        "Ġà¦¹",
        "à¦ª"
      ],
      [
        "Ġà¦ı",
        "à¦ľ"
      ],
      [
        "Ġà¦ı",
        "à¦®à¦¬"
      ],
      [
        "Ġà¦ı",
        "à¦ıà¦¨"
      ],
      [
        "Ġà¦¶",
        "à¦¨"
      ],
      [
        "à¦ĸ",
        "à¦¬"
      ],
      [
        "Ġà¦°",
        "à¦¹à¦¸"
      ],
      [
        "à¦¼à¦¾",
        "à¦Ĥ"
      ],
      [
        "Ġà¦Ľ",
        "à¦°"
      ],
      [
        "Ġà¦Ľ",
        "à¦¤"
      ],
      [
        "à¦Ĺ",
        "à¦²à¦Ľ"
      ],
      [
        "à¦¥",
        "à¦ª"
      ],
      [
        "à¦¥",
        "à¦²à¦¨"
      ],
      [
        "Ġà¦ī",
        "à¦ĩà¦ķ"
      ],
      [
        "Ġà¦ī",
        "à¦ĩà¦ľ"
      ],
      [
        "Ġà¦¬à¦¸",
        "à¦Ľ"
      ],
      [
        "à¦§",
        "à¦¸"
      ],
      [
        "Ġà¦«",
        "à¦ķ"
      ],
      [
        "à¦£",
        "à¦Ł"
      ],
      [
        "à¦ł",
        "à¦¦"
      ],
      [
        "Ġà¦ĺ",
        "à¦Łà¦¤"
      ],
      [
        "à¦ī",
        "à¦Łà¦¸"
      ],
      [
        "à¦ī",
        "à¦ªà¦ķ"
      ],
      [
        "à¦ī",
        "à¦ªà¦¯"
      ],
      [
        "à¦®à¦¨",
        "à¦Ł"
      ],
      [
        "à¦®à¦¨",
        "à¦¸"
      ],
      [
        "Ġà¦ĵ",
        "à¦ķ"
      ],
      [
        "Ġà¦ĵ",
        "à¦¹"
      ],
      [
        "à¦¬à¦²",
        "à¦Ł"
      ],
      [
        "à¦¬à¦²",
        "à¦¸"
      ],
      [
        "à¦ĵ",
        "à¦¹"
      ],
      [
        "à¦ŀ",
        "à¦¤"
      ],
      [
        "à¦Ŀ",
        "à¦¦"
      ],
      [
        "à¦Ŀ",
        "à¦¨à¦¦"
      ],
      [
        "Ġà¦ĩ",
        "à¦Ĺà¦²"
      ],
      [
        "Ġà¦ĩ",
        "à¦ķà¦¬"
      ],
      [
        "à¦īà¦¨",
        "à¦¹"
      ],
      [
        "Ġà¦ľà¦²",
        "à¦ľ"
      ],
      [
        "à¦°à¦¤",
        "à¦ļ"
      ],
      [
        "à¦ķà¦°",
        "à¦ķ"
      ],
      [
        "à¦²à¦¨",
        "à¦®"
      ],
      [
        "à¦°à¦ª",
        "à¦¤"
      ],
      [
        "à¦¸à¦°",
        "à¦·"
      ],
      [
        "à¦¶à¦¨",
        "à¦¬"
      ],
      [
        "à¦¤à¦°",
        "à¦Ł"
      ],
      [
        "à¦ĩà¦Ł",
        "à¦Ń"
      ],
      [
        "à¦ı",
        "à¦¤"
      ],
      [
        "à¦ı",
        "à¦¸à¦ķ"
      ],
      [
        "à¦Ĩ",
        "à¦¹à¦¤"
      ],
      [
        "à¦Ĩ",
        "à¦¤à¦¶à¦¬"
      ],
      [
        "Ġà¦ļà¦²",
        "à¦ļ"
      ],
      [
        "à¦¨à¦Ł",
        "à¦¨"
      ],
      [
        "Ġà¦Ĩà¦²",
        "à¦ª"
      ],
      [
        "Ġà¦Ńà¦¬à¦¨",
        "à¦Ł"
      ],
      [
        "à¦Ĺà¦²",
        "à¦«"
      ],
      [
        "à¦¸à¦®",
        "à¦¤à¦²"
      ],
      [
        "Ġà¦®à¦¨",
        "à¦¸"
      ],
      [
        "Ġà¦¬à¦ĩ",
        "à¦Ĺ"
      ],
      [
        "à¦Ĺà¦ľ",
        "à¦Ĺ"
      ],
      [
        "à¦ĩà¦¸",
        "à¦Ł"
      ],
      [
        "à¦¶à¦²",
        "à¦Ĺ"
      ],
      [
        "à¦ĩà¦ª",
        "à¦¯"
      ],
      [
        "à¦°à¦Ĺ",
        "à¦¤"
      ],
      [
        "à¦ªà¦¸",
        "à¦¨"
      ],
      [
        "à¦¯à¦°",
        "à¦¶"
      ],
      [
        "Ġà¦Ĩà¦¬",
        "à¦Ĺ"
      ],
      [
        "à¦°à¦ļ",
        "à¦¨"
      ],
      [
        "à¦°à¦¹",
        "à¦ķ"
      ],
      [
        "à¦Łà¦¤",
        "à¦ĩ"
      ],
      [
        "Ġ2",
        "008"
      ],
      [
        "Ġà¦Ĩà¦¶",
        "à¦ª"
      ],
      [
        "à¦ķà¦¸",
        "à¦¹"
      ],
      [
        "Ġà¦¨à¦¬",
        "à¦¬"
      ],
      [
        "Ġà¦¨à¦¬",
        "à¦¬à¦°"
      ],
      [
        "Ġ1",
        "7"
      ],
      [
        "Ġ1",
        "9"
      ],
      [
        "à¦īà¦°",
        "à¦¡"
      ],
      [
        "Ġà¦ªà¦¦",
        "à¦¯"
      ],
      [
        "à¦°à¦ħà¦²",
        "à¦Ĺ"
      ],
      [
        "à¦ıà¦¸",
        "à¦ıà¦²"
      ],
      [
        "à¦ĩà¦ī",
        "à¦ıà¦¸"
      ],
      [
        "Ġà¦ĩà¦ī",
        "à¦ıà¦¸"
      ],
      [
        "à¦Ŀà¦ķ",
        "à¦Ŀà¦ķ"
      ],
      [
        "Ġ9",
        "0"
      ],
      [
        "Ġà¦ıà¦®",
        "à¦ıà¦®à¦ı"
      ],
      [
        "Ġà¦¸à¦°à¦²",
        "à¦°"
      ],
      [
        "à¦ıà¦¸à¦ıà¦²",
        "à¦Ĩà¦°"
      ],
      [
        "1",
        "4"
      ],
      [
        "2",
        "4"
      ],
      [
        "3",
        "0"
      ],
      [
        "4",
        "0"
      ],
      [
        "5",
        "7"
      ],
      [
        "7",
        "0"
      ],
      [
        "9",
        "6"
      ],
      [
        "Ġ",
        ";"
      ],
      [
        "à¦°",
        "à¦ĸà¦¨"
      ],
      [
        "à¦°",
        "à¦ŀ"
      ],
      [
        "à¦°",
        "à¦ĺ"
      ],
      [
        "à¦°",
        "à¦ħ"
      ],
      [
        "à¦¿",
        ";"
      ],
      [
        "à¦ķ",
        "à¦ĩ"
      ],
      [
        "à¦ķ",
        "à¦Ļ"
      ],
      [
        "à¦ķ",
        "à¦ķà¦°"
      ],
      [
        "à¦ķ",
        "à¦²à¦®"
      ],
      [
        "à¦¨",
        "à¦ķà¦ķ"
      ],
      [
        "à¦¨",
        "à¦¤à¦®"
      ],
      [
        "à¦¨",
        "à¦¡à¦Ĺ"
      ],
      [
        "à¦²",
        "à¦£"
      ],
      [
        "à¦¯",
        "à¦¬à¦°"
      ],
      [
        "Ġà¦ıà¦ķ",
        "à¦®à¦¨"
      ],
      [
        "Ġà¦¬",
        "à¦¦"
      ],
      [
        "Ġà¦¬",
        "à¦Ļ"
      ],
      [
        "à¦ľ",
        "à¦°à¦¦"
      ],
      [
        "Ġà¦ķ",
        "à¦¸à¦®à¦¸"
      ],
      [
        "à¦¤",
        "à¦¯"
      ],
      [
        "Ġà¦¦",
        "à¦ĩ"
      ],
      [
        "Ġà¦¦",
        "à¦«"
      ],
      [
        "à¦¼à§ĩ",
        ")"
      ],
      [
        "Ġà¦®",
        "à¦²à¦¤"
      ],
      [
        "à¦ľà¦¨",
        "à¦°"
      ],
      [
        "à¦ľà¦¨",
        "à¦¦"
      ],
      [
        "à¦¡",
        "à¦§"
      ],
      [
        "à¦¡",
        "à¦¬à¦ķ"
      ],
      [
        "à¦®",
        "à¦ĩ"
      ],
      [
        "à¦¦",
        "à¦ª"
      ],
      [
        "à¦¦",
        "à¦ĵà¦¯"
      ],
      [
        "à¦ª",
        "à¦Ļ"
      ],
      [
        "Ġà¦Ĩ",
        "à¦®à¦¨"
      ],
      [
        "Ġà¦Ĩ",
        "à¦®à¦²"
      ],
      [
        "Ġà¦Ĩ",
        "à¦ĩà¦Ń"
      ],
      [
        "Ġà¦Ĩ",
        "à¦ĩà¦ĵà¦¯"
      ],
      [
        "à¦¶",
        "à¦Ļ"
      ],
      [
        "à¦¶",
        "à¦Ń"
      ],
      [
        "à§Ģ",
        ")"
      ],
      [
        "Ġà¦ªà¦°",
        "à¦ĩ"
      ],
      [
        "à¦ĩ",
        "à¦§"
      ],
      [
        "à¦ĩ",
        "à¦²à¦®"
      ],
      [
        "Ġà¦¤",
        "à¦¹à¦¬"
      ],
      [
        "Ġà¦¨",
        "à¦ľà¦°à¦¦"
      ],
      [
        "Ġà¦¶",
        "à¦²"
      ],
      [
        "Ġà¦ľ",
        "à¦°à¦¦"
      ],
      [
        "Ġà¦ľ",
        "à¦Łà¦²"
      ],
      [
        "à¦ıà¦ķà¦ľà¦¨",
        "à¦ķ"
      ],
      [
        "à¦¥",
        "à¦¡"
      ],
      [
        "Ġà¦ĸ",
        "à¦ĩ"
      ],
      [
        "Ġà¦ħ",
        "à¦®à¦²"
      ],
      [
        "Ġà¦ħ",
        "à¦ĩà¦ª"
      ],
      [
        "Ġà¦ħ",
        "à¦®à¦¸"
      ],
      [
        "à¦«",
        "à¦ıà¦²"
      ],
      [
        "à¦ªà¦°",
        "à¦¨"
      ],
      [
        "Ġà¦«",
        "à¦¨"
      ],
      [
        "Ġà¦«",
        "à¦²à¦¨"
      ],
      [
        "à¦Ļ",
        "à¦¤"
      ],
      [
        "à¦£",
        "à¦¬"
      ],
      [
        "à¦ł",
        "à¦Ł"
      ],
      [
        "Ġà¦§à¦°",
        "à¦²"
      ],
      [
        "Ġà¦§à¦°",
        "à¦ľ"
      ],
      [
        "Ġà¦ĺ",
        "à¦¨à¦¤"
      ],
      [
        "Ġà¦¥",
        "à¦°"
      ],
      [
        "à¦ī",
        "à¦°à¦¨"
      ],
      [
        "à¦ī",
        "à¦²à¦Ļ"
      ],
      [
        "à¦ī",
        "à¦ªà¦¬"
      ],
      [
        "Ġà¦ĵ",
        "à¦®"
      ],
      [
        "Ġà¦ĵ",
        "à¦ķà¦²"
      ],
      [
        "à¦ŀ",
        "à¦¦"
      ],
      [
        "à¦¦à¦²",
        "à¦Ł"
      ],
      [
        "Ġà¦¸à¦¬",
        "à¦¸à¦®à¦¯"
      ],
      [
        "Ġà¦ĩ",
        "à¦«à¦¤"
      ],
      [
        "Ġà¦¬à¦²",
        "à¦¯"
      ],
      [
        "à¦īà¦¨",
        "à¦¦"
      ],
      [
        "à¦°à¦®",
        "à¦ľ"
      ],
      [
        "à¦°à¦®",
        "à¦§"
      ],
      [
        "à¦°à¦¸",
        "à¦¨"
      ],
      [
        "Ġà¦¹à¦²",
        "à¦°"
      ],
      [
        "Ġà¦¹à¦²",
        "à¦¦"
      ],
      [
        "à¦ĺ",
        "à¦ķ"
      ],
      [
        "à¦ĺ",
        "à¦¹"
      ],
      [
        "à¦ĺ",
        "à¦°à¦Ł"
      ],
      [
        "à¦ķà¦°",
        "à¦¶"
      ],
      [
        "à¦ĩà¦¨",
        "à¦¯"
      ],
      [
        "à¦°à¦ª",
        "à¦¸"
      ],
      [
        "à¦¹à¦°",
        "à¦£"
      ],
      [
        "à¦¶à¦¨",
        "à¦Ĺ"
      ],
      [
        "à¦¥à¦°",
        "à¦¯"
      ],
      [
        "à¦ĩà¦Ł",
        "à¦ĵà¦¯"
      ],
      [
        "à¦ı",
        "à¦ľà¦¨"
      ],
      [
        "à¦ı",
        "à¦«à¦ıà¦²"
      ],
      [
        "à¦Ĩ",
        "à¦¸"
      ],
      [
        "à¦Ĩ",
        "à¦ĩà¦°"
      ],
      [
        "à¦Ĩ",
        "à¦ķà¦°"
      ],
      [
        "Ġà¦Ĩà¦²",
        "à¦°"
      ],
      [
        "à¦ĩà¦¡",
        "à¦Ł"
      ],
      [
        "à¦Ĺà¦²",
        "à¦¦"
      ],
      [
        "à¦ĩà¦²",
        "à¦¬à¦ķ"
      ],
      [
        "à¦¸à¦®",
        "à¦°"
      ],
      [
        "Ġà¦¶à¦°",
        "à¦·"
      ],
      [
        "Ġà¦¶à¦°",
        "à¦¬à¦¤"
      ],
      [
        "Ġà¦ªà¦¥",
        "à¦¶"
      ],
      [
        "Ġà¦ªà¦¥",
        "à¦ļà¦²"
      ],
      [
        "Ġà¦®à¦¨",
        "à¦¯"
      ],
      [
        "Ġà¦Łà¦ª",
        "à¦ķ"
      ],
      [
        "à¦īà¦Ł",
        "à¦¦"
      ],
      [
        "à¦¹à¦²",
        "à¦¦"
      ],
      [
        "à¦°à¦£",
        "à¦¤"
      ],
      [
        "à¦¤à¦²",
        "à¦Ĺ"
      ],
      [
        "Ġà¦ķà¦®",
        "à¦¬à¦¯"
      ],
      [
        "Ġà¦ķà¦®",
        "à¦ªà¦ķ"
      ],
      [
        "à¦ķà¦ª",
        "à¦¯"
      ],
      [
        "à¦īà¦ľ",
        "à¦ķ"
      ],
      [
        "Ġà¦¬à¦ķ",
        "à¦¬à¦ķ"
      ],
      [
        "Ġà¦Ĩà¦ĩà¦¸",
        "à¦¡"
      ],
      [
        "à¦¡à¦¸",
        "à¦¨"
      ],
      [
        "à¦ªà¦¥",
        "à¦¶"
      ],
      [
        "à¦°à¦ļ",
        "à¦²"
      ],
      [
        "à¦¨à¦¬",
        "à¦¬à¦¨"
      ],
      [
        "à¦ªà¦Łà¦ª",
        "à¦Ł"
      ],
      [
        "Ġ2",
        "2"
      ],
      [
        "Ġ2",
        "8"
      ],
      [
        "à¦Łà¦²",
        "à¦¸"
      ],
      [
        "Ġà§§",
        "à§¦"
      ],
      [
        "Ġà¦īà§İ",
        "à¦ªà¦¨"
      ],
      [
        "à¦ľà¦®",
        "à¦ľà¦®"
      ],
      [
        "Ġ1",
        "00"
      ],
      [
        "à§§",
        "à§¦"
      ],
      [
        "à¦¨à¦¸",
        "à¦¹"
      ],
      [
        "Ġ4",
        "0"
      ],
      [
        "Ġà¦Ĩà¦§",
        "à¦¬à¦¯"
      ],
      [
        "Ġà¦ªà¦¦",
        "à¦¦à¦²"
      ],
      [
        "à¦¸à¦«",
        "à¦Łà¦¬à¦²"
      ],
      [
        "à¦Ńà¦¬à¦¨",
        "à¦Ł"
      ],
      [
        "Ġ6",
        "6"
      ],
      [
        "Ġà¦Ĺà¦£",
        "à¦¹à¦¤"
      ],
      [
        "Ġà¦ĩà¦ī",
        "à¦ª"
      ],
      [
        "Ġà¦ĩà¦ī",
        "à¦ı"
      ],
      [
        "Ġà¦Ī",
        "à¦¶"
      ],
      [
        "Ġà¦²à¦¬",
        "à¦£"
      ],
      [
        "Ġà¦ľà¦¨à¦¸",
        "à¦Ń"
      ],
      [
        "à¦Łà¦«",
        "à¦°à¦®"
      ],
      [
        "à¦īà§İ",
        "à¦°"
      ],
      [
        "à¦°à¦¬à¦£",
        "à¦¤"
      ],
      [
        "ĠâĢ",
        "ĺ"
      ],
      [
        "Ġà¦ķà¦ĸà¦¨",
        "à¦ĵ"
      ],
      [
        "à¦¦à¦²à¦¬",
        "à¦¦à¦²"
      ],
      [
        "Ġà¦¸à¦«à¦²",
        "à¦Ń"
      ],
      [
        "1",
        "8"
      ],
      [
        "2",
        "01"
      ],
      [
        "4",
        "7"
      ],
      [
        "4",
        "9"
      ],
      [
        "5",
        "3"
      ],
      [
        "?",
        ")"
      ],
      [
        "Ġ",
        "à§ĩ"
      ],
      [
        "à¦",
        "Ĭ"
      ],
      [
        "à¦¾",
        "!"
      ],
      [
        "à¦¾",
        "'"
      ],
      [
        "à¦¾",
        "âĢĻ"
      ],
      [
        "à¦¾",
        "âĢĿ"
      ],
      [
        "à§ĩ",
        "à§ĩ"
      ],
      [
        "à¦°",
        "à¦Ŀ"
      ],
      [
        "à¦°",
        "à¦¢"
      ],
      [
        "à¦°",
        "à¦¡à¦ĵà¦¯"
      ],
      [
        "à¦¿",
        "!"
      ],
      [
        "à¦¿",
        ")"
      ],
      [
        "à¦¿",
        "?"
      ],
      [
        "à¦¿",
        "à¦¾"
      ],
      [
        "à¦¿",
        "à§ģ"
      ],
      [
        "à¦ķ",
        "à¦¬à¦°"
      ],
      [
        "à¦¨",
        "à¦®à¦¨"
      ],
      [
        "à¦¨",
        "à¦°à¦®"
      ],
      [
        "à¦Ł",
        "à¦ľà¦¨"
      ],
      [
        "à¦Ł",
        "à¦ķà¦Ł"
      ],
      [
        "à¦²",
        "à¦¶"
      ],
      [
        "à¦²",
        "à¦ĵ"
      ],
      [
        "à¦²",
        "à¦Ĩà¦°"
      ],
      [
        "à¦¯",
        "à§İ"
      ],
      [
        "à¦¯",
        "à¦¡à¦®"
      ],
      [
        "à¦¯",
        "à¦¤à¦¦"
      ],
      [
        "à§ģ",
        "à§ĥ"
      ],
      [
        "à¦Ľ",
        "à¦¸à¦¹"
      ],
      [
        "à¦Ľ",
        "à¦§à¦°"
      ],
      [
        "Ġà¦ıà¦ķ",
        "à¦¨"
      ],
      [
        "Ġà¦ıà¦ķ",
        "à¦¤à¦²"
      ],
      [
        "Ġà¦¬",
        "à¦ļ"
      ],
      [
        "Ġà¦¬",
        "à¦°à¦ķ"
      ],
      [
        "Ġà¦¬",
        "à¦ķà¦ª"
      ],
      [
        "Ġà¦ķ",
        "à¦ĩà¦Ł"
      ],
      [
        "à¦¬",
        "à¦īà¦Ł"
      ],
      [
        "à¦¬",
        "à¦Łà¦ķ"
      ],
      [
        "à¦¬",
        "à¦Łà¦Ĺ"
      ],
      [
        "à¦¸",
[...]
